node {
  name: "global_step"
  op: "Variable"
  attr {
    key: "_output_shapes"
    value {
      list {
        shape {
        }
      }
    }
  }
  attr {
    key: "container"
    value {
      s: ""
    }
  }
  attr {
    key: "dtype"
    value {
      type: DT_INT64
    }
  }
  attr {
    key: "shape"
    value {
      shape {
      }
    }
  }
  attr {
    key: "shared_name"
    value {
      s: ""
    }
  }
}
node {
  name: "global_step/Initializer/zeros"
  op: "Const"
  attr {
    key: "_class"
    value {
      list {
        s: "loc:@global_step"
      }
    }
  }
  attr {
    key: "_output_shapes"
    value {
      list {
        shape {
        }
      }
    }
  }
  attr {
    key: "dtype"
    value {
      type: DT_INT64
    }
  }
  attr {
    key: "value"
    value {
      tensor {
        dtype: DT_INT64
        tensor_shape {
        }
        int64_val: 0
      }
    }
  }
}
node {
  name: "global_step/Assign"
  op: "Assign"
  input: "global_step"
  input: "global_step/Initializer/zeros"
  attr {
    key: "T"
    value {
      type: DT_INT64
    }
  }
  attr {
    key: "_class"
    value {
      list {
        s: "loc:@global_step"
      }
    }
  }
  attr {
    key: "_output_shapes"
    value {
      list {
        shape {
        }
      }
    }
  }
  attr {
    key: "use_locking"
    value {
      b: true
    }
  }
  attr {
    key: "validate_shape"
    value {
      b: true
    }
  }
}
node {
  name: "global_step/read"
  op: "Identity"
  input: "global_step"
  attr {
    key: "T"
    value {
      type: DT_INT64
    }
  }
  attr {
    key: "_class"
    value {
      list {
        s: "loc:@global_step"
      }
    }
  }
  attr {
    key: "_output_shapes"
    value {
      list {
        shape {
        }
      }
    }
  }
}
node {
  name: "Const"
  op: "Const"
  attr {
    key: "_output_shapes"
    value {
      list {
        shape {
          dim {
            size: 1598
          }
        }
      }
    }
  }
  attr {
    key: "dtype"
    value {
      type: DT_FLOAT
    }
  }
  attr {
    key: "value"
    value {
      tensor {
        dtype: DT_FLOAT
        tensor_shape {
          dim {
            size: 1598
          }
        }
        tensor_content: "\000\000\200?\000\000\200?\000\000\200?\000\000\200?\000\000\200?\000\000\200?\000\000\200?\000\000\200?\000\000\200?\000\000\200?\000\000\200?\000\000\200?\000\000\200?\000\000\200?\000\000\200?\000\000\200?\000\000\200?\000\000\200?\000\000\200?\000\000\200?\000\000\200?\000\000\200?\000\000\200?\000\000\200?\000\000\200?\000\000\200?\000\000\200?\000\000\200?\000\000\200?\000\000\200?\000\000\200?\000\000\200?\000\000\200?\000\000\200?\000\000\200?\000\000\200?\000\000\200?\000\000\200?\000\000\200?\000\000\200?\000\000\200?\000\000\200?\000\000\200?\000\000\200?\000\000\200?\000\000\200?\000\000\200?\000\000\200?\000\000\200?\000\000\200?\000\000\200?\000\000\200?\000\000\200?\000\000\200?\000\000\200?\000\000\200?\000\000\200?\000\000\200?\000\000\200?\000\000\200?\000\000\200?\000\000\200?\000\000\200?\000\000\200?\000\000\200?\000\000\200?\000\000\200?\000\000\200?\000\000\200?\000\000\200?\000\000\200?\000\000\200?\000\000\200?\000\000\200?\000\000\200?\000\000\200?\000\000\200?\000\000\200?\000\000\200?\000\000\200?\000\000\200?\000\000\200?\000\000\200?\000\000\200?\000\000\200?\000\000\200?\000\000\200?\000\000\200?\000\000\200?\000\000\200?\000\000\200?\000\000\200?\000\000\200?\000\000\200?\000\000\200?\000\000\200?\000\000\200?\000\000\200?\000\000\200?\000\000\200?\000\000\200?\000\000\200?\000\000\200?\342\361z?\342\361z?\342\361z?\342\361z?\342\361z?\342\361z?\342\361z?\342\361z?\342\361z?\342\361z?\342\361z?\342\361z?\342\361z?\342\361z?\342\361z?\342\361z?\342\361z?\342\361z?\342\361z?\342\361z?\342\361z?\342\361z?\342\361z?\342\361z?\342\361z?\342\361z?\342\361z?\342\361z?\342\361z?\342\361z?\342\361z?\342\361z?\342\361z?\342\361z?\342\361z?\342\361z?\342\361z?\342\361z?\342\361z?\342\361z?\342\361z?\342\361z?\342\361z?\342\361z?\342\361z?\342\361z?\342\361z?\342\361z?\342\361z?\342\361z?\342\361z?\342\361z?\342\361z?\342\361z?\342\361z?\342\361z?\342\361z?\342\361z?\342\361z?\342\361z?\342\361z?\342\361z?\342\361z?\342\361z?\362\024x?\362\024x?\362\024x?\362\024x?\362\024x?\362\024x?\362\024x?\362\024x?\362\024x?\362\024x?\362\024x?\362\024x?\362\024x?\362\024x?\362\024x?\362\024x?\362\024x?\362\024x?\362\024x?\362\024x?\362\024x?\362\024x?\362\024x?\362\024x?\362\024x?\362\024x?\362\024x?\362\024x?\362\024x?\362\024x?\362\024x?\362\024x?\362\024x?\362\024x?\362\024x?\362\024x?\362\024x?\362\024x?\362\024x?\362\024x?\362\024x?\362\024x?\362\024x?\362\024x?\362\024x?\362\024x?\362\024x?\362\024x?\362\024x?\362\024x?\362\024x?\362\024x?\362\024x?\362\024x?\362\024x?\362\024x?\362\024x?\362\024x?\362\024x?\362\024x?\362\024x?\362\024x?\362\024x?\341Tw?\341Tw?\341Tw?\341Tw?\341Tw?\341Tw?\341Tw?\341Tw?\341Tw?\341Tw?\341Tw?\341Tw?\341Tw?\341Tw?\341Tw?\341Tw?\341Tw?\341Tw?\341Tw?\341Tw?\341Tw?\341Tw?\341Tw?\341Tw?\341Tw?\341Tw?\341Tw?\341Tw?\341Tw?\341Tw?\341Tw?\341Tw?\341Tw?\341Tw?\341Tw?\341Tw?\341Tw?\341Tw?\341Tw?\341Tw?\341Tw?\341Tw?\341Tw?\341Tw?\341Tw?\341Tw?\341Tw?\341Tw?\341Tw?\341Tw?\341Tw?\341Tw?\341Tw?\341Tw?\341Tw?\341Tw?\341Tw?\341Tw?\341Tw?\341Tw?\341Tw?\341Tw?\324\025x?\324\025x?\324\025x?\324\025x?\324\025x?\324\025x?\324\025x?\324\025x?\324\025x?\324\025x?\324\025x?\324\025x?\324\025x?\324\025x?\324\025x?\324\025x?\324\025x?\324\025x?\324\025x?\324\025x?\324\025x?\324\025x?\324\025x?\324\025x?\324\025x?\324\025x?\324\025x?\324\025x?\324\025x?\324\025x?\324\025x?\324\025x?\324\025x?\324\025x?\324\025x?\324\025x?\324\025x?\324\025x?\324\025x?\324\025x?\324\025x?\324\025x?\324\025x?\324\025x?\324\025x?\324\025x?\324\025x?\324\025x?\324\025x?\324\025x?\324\025x?\324\025x?\324\025x?\324\025x?\324\025x?\324\025x?\324\025x?\324\025x?\324\025x?\324\025x?\324\025x?\324\025x?\324\025x?-;{?-;{?-;{?-;{?-;{?-;{?-;{?-;{?-;{?-;{?-;{?-;{?-;{?-;{?-;{?-;{?-;{?-;{?-;{?-;{?-;{?-;{?-;{?-;{?-;{?-;{?-;{?-;{?-;{?-;{?-;{?-;{?-;{?-;{?-;{?-;{?-;{?-;{?-;{?-;{?-;{?-;{?-;{?-;{?-;{?-;{?-;{?-;{?-;{?-;{?-;{?-;{?-;{?-;{?-;{?-;{?-;{?-;{?-;{?-;{?-;{?-;{?-;{?-;{?+5}?+5}?+5}?+5}?+5}?+5}?+5}?+5}?+5}?+5}?+5}?+5}?+5}?+5}?+5}?+5}?+5}?+5}?+5}?+5}?+5}?+5}?+5}?+5}?+5}?+5}?+5}?+5}?+5}?+5}?+5}?+5}?+5}?+5}?+5}?+5}?+5}?+5}?+5}?+5}?+5}?+5}?+5}?+5}?+5}?+5}?+5}?+5}?+5}?+5}?+5}?+5}?+5}?+5}?+5}?+5}?+5}?+5}?+5}?+5}?+5}?+5}?+5}?\000\000\200?\000\000\200?\000\000\200?\000\000\200?\000\000\200?\000\000\200?\000\000\200?\000\000\200?\000\000\200?\000\000\200?\000\000\200?\000\000\200?\000\000\200?\000\000\200?\000\000\200?\000\000\200?\000\000\200?\000\000\200?\000\000\200?\000\000\200?\000\000\200?\000\000\200?\000\000\200?\000\000\200?\000\000\200?\000\000\200?\000\000\200?\000\000\200?\000\000\200?\000\000\200?\000\000\200?\000\000\200?\000\000\200?\000\000\200?\000\000\200?\000\000\200?\000\000\200?\000\000\200?\000\000\200?\000\000\200?\000\000\200?\000\000\200?\000\000\200?\000\000\200?\000\000\200?\000\000\200?\000\000\200?\000\000\200?\000\000\200?\000\000\200?\000\000\200?\000\000\200?\000\000\200?\000\000\200?\000\000\200?\000\000\200?\000\000\200?\000\000\200?\000\000\200?\000\000\200?\000\000\200?\000\000\200?\000\000\200?\000\000\200?\000\000\200?\000\000\200?\000\000\200?\000\000\200?\000\000\200?\000\000\200?\000\000\200?\000\000\200?\000\000\200?\000\000\200?\000\000\200?\000\000\200?\000\000\200?\000\000\200?\000\000\200?\000\000\200?\000\000\200?\000\000\200?\000\000\200?\000\000\200?\000\000\200?\000\000\200?\000\000\200?\000\000\200?\000\000\200?\000\000\200?\000\000\200?\000\000\200?\000\000\200?\000\000\200?\000\000\200?\000\000\200?\000\000\200?\000\000\200?\000\000\200?\000\000\200?\000\000\200?\000\000\200?\000\000\200?\000\000\200?\000\000\200?\000\000\200?\000\000\200?\000\000\200?\000\000\200?\000\000\200?\000\000\200?\000\000\200?\000\000\200?\000\000\200?\000\000\200?\000\000\200?\000\000\200?\000\000\200?\000\000\200?\000\000\200?\000\000\200?\000\000\200?\000\000\200?\000\000\200?\000\000\200?\000\000\200?\000\000\200?\000\000\200?\000\000\200?\000\000\200?\000\000\200?\000\000\200?\000\000\200?\000\000\200?\000\000\200?\000\000\200?\000\000\200?\000\000\200?\000\000\200?\000\000\200?\000\000\200?\000\000\200?\000\000\200?\000\000\200?\000\000\200?\000\000\200?\000\000\200?\000\000\200?\000\000\200?\000\000\200?\000\000\200?\000\000\200?\000\000\200?\000\000\200?\000\000\200?\000\000\200?\000\000\200?\000\000\200?\000\000\200?\000\000\200?\000\000\200?\000\000\200?\000\000\200?\000\000\200?\000\000\200?\000\000\200?\000\000\200?\000\000\200?\000\000\200?\000\000\200?\000\000\200?\000\000\200?\000\000\200?\000\000\200?\000\000\200?\000\000\200?\000\000\200?\000\000\200?\000\000\200?\000\000\200?\000\000\200?\000\000\200?\000\000\200?\000\000\200?\000\000\200?\000\000\200?\000\000\200?\000\000\200?\000\000\200?\000\000\200?\000\000\200?\000\000\200?\000\000\200?\000\000\200?\000\000\200?\000\000\200?\000\000\200?\000\000\200?\000\000\200?\000\000\200?\000\000\200?\000\000\200?\000\000\200?\000\000\200?\000\000\200?\000\000\200?\000\000\200?\000\000\200?\000\000\200?\000\000\200?\000\000\200?\000\000\200?\000\000\200?\000\000\200?\000\000\200?\000\000\200?\000\000\200?\000\000\200?\000\000\200?\000\000\200?\000\000\200?\000\000\200?\000\000\200?\000\000\200?\000\000\200?\000\000\200?\000\000\200?\000\000\200?\000\000\200?\000\000\200?\000\000\200?\000\000\200?\000\000\200?\000\000\200?\000\000\200?\000\000\200?\000\000\200?\000\000\200?\000\000\200?\000\000\200?\000\000\200?\000\000\200?\000\000\200?\000\000\200?\000\000\200?\000\000\200?\000\000\200?\000\000\200?\000\000\200?\000\000\200?\000\000\200?\000\000\200?\000\000\200?\000\000\200?\000\000\200?\000\000\200?\000\000\200?\000\000\200?\000\000\200?\000\000\200?\000\000\200?\000\000\200?\000\000\200?\000\000\200?\000\000\200?\000\000\200?\000\000\200?\000\000\200?\000\000\200?\000\000\200?\000\000\200?\000\000\200?\000\000\200?\000\000\200?\000\000\200?\000\000\200?\000\000\200?\000\000\200?\000\000\200?\000\000\200?\000\000\200?\000\000\200?\000\000\200?\000\000\200?\000\000\200?\000\000\200?\000\000\200?\000\000\200?\000\000\200?\000\000\200?\000\000\200?\000\000\200?\000\000\200?\000\000\200?\000\000\200?\000\000\200?\000\000\200?\000\000\200?\000\000\200?\000\000\200?\000\000\200?\000\000\200?\000\000\200?\000\000\200?\000\000\200?\000\000\200?\000\000\200?\000\000\200?\000\000\200?\000\000\200?\000\000\200?\000\000\200?\000\000\200?\000\000\200?\000\000\200?\000\000\200?\000\000\200?\000\000\200?\000\000\200?\000\000\200?\000\000\200?\000\000\200?\000\000\200?\000\000\200?\000\000\200?\000\000\200?\000\000\200?\000\000\200?\000\000\200?\000\000\200?\000\000\200?\000\000\200?\000\000\200?\000\000\200?\000\000\200?\000\000\200?\000\000\200?\000\000\200?\000\000\200?\000\000\200?\000\000\200?\000\000\200?\000\000\200?\000\000\200?\000\000\200?\000\000\200?\000\000\200?\000\000\200?\000\000\200?\000\000\200?\000\000\200?\000\000\200?\000\000\200?\000\000\200?\000\000\200?\000\000\200?\000\000\200?\000\000\200?\000\000\200?\000\000\200?\000\000\200?\000\000\200?\000\000\200?\000\000\200?\000\000\200?\000\000\200?\000\000\200?\000\000\200?\000\000\200?\000\000\200?\000\000\200?\000\000\200?\000\000\200?\000\000\200?\000\000\200?\000\000\200?\000\000\200?\000\000\200?\000\000\200?\000\000\200?\000\000\200?\000\000\200?\000\000\200?\000\000\200?\000\000\200?\000\000\200?\000\000\200?\000\000\200?\000\000\200?\000\000\200?\000\000\200?\000\000\200?\000\000\200?\000\000\200?\000\000\200?\000\000\200?\000\000\200?\000\000\200?\000\000\200?\000\000\200?\000\000\200?\000\000\200?\000\000\200?\000\000\200?\000\000\200?\000\000\200?\000\000\200?\000\000\200?\000\000\200?\000\000\200?\000\000\200?\000\000\200?\000\000\200?\000\000\200?\000\000\200?\000\000\200?\000\000\200?\000\000\200?\000\000\200?\000\000\200?\000\000\200?\000\000\200?\000\000\200?\000\000\200?\000\000\200?\000\000\200?\000\000\200?\000\000\200?\000\000\200?\000\000\200?\000\000\200?\000\000\200?\000\000\200?\000\000\200?\000\000\200?\000\000\200?\000\000\200?\000\000\200?\000\000\200?\000\000\200?\000\000\200?\000\000\200?\000\000\200?\000\000\200?\000\000\200?\000\000\200?\000\000\200?\000\000\200?\000\000\200?\000\000\200?\000\000\200?\000\000\200?\000\000\200?\000\000\200?\000\000\200?\000\000\200?\000\000\200?\000\000\200?\000\000\200?\000\000\200?\000\000\200?\000\000\200?\000\000\200?\000\000\200?\000\000\200?\000\000\200?\000\000\200?\000\000\200?\000\000\200?\000\000\200?\000\000\200?\000\000\200?\000\000\200?\000\000\200?\000\000\200?\000\000\200?\000\000\200?\000\000\200?\000\000\200?\000\000\200?\000\000\200?\000\000\200?\000\000\200?\000\000\200?\000\000\200?\000\000\200?\000\000\200?\000\000\200?\000\000\200?\000\000\200?\000\000\200?\000\000\200?\000\000\200?\000\000\200?\000\000\200?\000\000\200?\000\000\200?\000\000\200?\000\000\200?\000\000\200?\000\000\200?\000\000\200?\000\000\200?\000\000\200?\000\000\200?\000\000\200?\000\000\200?\000\000\200?\000\000\200?\000\000\200?\000\000\200?\000\000\200?\000\000\200?\000\000\200?\000\000\200?\000\000\200?\000\000\200?\000\000\200?\000\000\200?\000\000\200?\000\000\200?\000\000\200?\000\000\200?\000\000\200?\000\000\200?\000\000\200?\000\000\200?\000\000\200?\000\000\200?\000\000\200?\000\000\200?\000\000\200?\000\000\200?\000\000\200?\000\000\200?\000\000\200?\000\000\200?\000\000\200?\000\000\200?\000\000\200?\000\000\200?\000\000\200?\000\000\200?\000\000\200?\000\000\200?\000\000\200?\000\000\200?\000\000\200?\000\000\200?\000\000\200?\000\000\200?\000\000\200?\000\000\200?\000\000\200?\000\000\200?\000\000\200?\000\000\200?\000\000\200?\000\000\200?\000\000\200?\000\000\200?\000\000\200?\000\000\200?\000\000\200?\000\000\200?\000\000\200?\000\000\200?\000\000\200?\000\000\200?\000\000\200?\000\000\200?\000\000\200?\000\000\200?\000\000\200?\000\000\200?\000\000\200?\000\000\200?\000\000\200?\000\000\200?\000\000\200?\000\000\200?\000\000\200?\000\000\200?\000\000\200?\000\000\200?\000\000\200?\000\000\200?\000\000\200?\000\000\200?\000\000\200?\000\000\200?\000\000\200?\000\000\200?\000\000\200?\000\000\200?\000\000\200?\000\000\200?\000\000\200?\000\000\200?\000\000\200?\000\000\200?\000\000\200?\000\000\200?\000\000\200?\000\000\200?\000\000\200?\000\000\200?\000\000\200?\000\000\200?\000\000\200?\000\000\200?\000\000\200?\000\000\200?\000\000\200?\000\000\200?\000\000\200?\000\000\200?\000\000\200?\000\000\200?\000\000\200?\000\000\200?\000\000\200?\000\000\200?\000\000\200?\000\000\200?\000\000\200?\000\000\200?\000\000\200?\000\000\200?\000\000\200?\000\000\200?\000\000\200?\000\000\200?\000\000\200?\000\000\200?\000\000\200?\000\000\200?\000\000\200?\000\000\200?\000\000\200?\000\000\200?\000\000\200?\000\000\200?\000\000\200?\000\000\200?\000\000\200?\000\000\200?\000\000\200?\000\000\200?\000\000\200?\000\000\200?\000\000\200?\000\000\200?\000\000\200?\000\000\200?\000\000\200?\000\000\200?\000\000\200?\000\000\200?\000\000\200?\000\000\200?\000\000\200?\000\000\200?\000\000\200?\000\000\200?\000\000\200?\000\000\200?\000\000\200?\000\000\200?\000\000\200?\000\000\200?\000\000\200?\000\000\200?\000\000\200?\000\000\200?\000\000\200?\000\000\200?\000\000\200?\000\000\200?\000\000\200?\000\000\200?\000\000\200?\000\000\200?\000\000\200?\000\000\200?\000\000\200?\000\000\200?\000\000\200?\000\000\200?\000\000\200?\000\000\200?\000\000\200?\000\000\200?\000\000\200?\000\000\200?\000\000\200?\000\000\200?\000\000\200?\000\000\200?\000\000\200?\000\000\200?\000\000\200?\000\000\200?\000\000\200?\000\000\200?\000\000\200?\000\000\200?\000\000\200?\000\000\200?\000\000\200?\000\000\200?\000\000\200?\000\000\200?\000\000\200?\000\000\200?\000\000\200?\000\000\200?\000\000\200?\000\000\200?\000\000\200?\000\000\200?\000\000\200?\000\000\200?\000\000\200?\000\000\200?\000\000\200?\000\000\200?\000\000\200?\000\000\200?\000\000\200?\000\000\200?\000\000\200?\000\000\200?\000\000\200?\000\000\200?\000\000\200?\000\000\200?\000\000\200?\000\000\200?\000\000\200?\000\000\200?\000\000\200?\000\000\200?\000\000\200?\000\000\200?\000\000\200?\000\000\200?\000\000\200?\000\000\200?\000\000\200?\000\000\200?\000\000\200?\000\000\200?\000\000\200?\000\000\200?\000\000\200?\000\000\200?\000\000\200?\000\000\200?\000\000\200?\000\000\200?\000\000\200?\000\000\200?\000\000\200?\000\000\200?\000\000\200?\000\000\200?\000\000\200?\000\000\200?\000\000\200?\000\000\200?\000\000\200?\000\000\200?\000\000\200?\000\000\200?\000\000\200?\000\000\200?\000\000\200?\000\000\200?\000\000\200?\000\000\200?\000\000\200?\000\000\200?\000\000\200?\000\000\200?\000\000\200?\000\000\200?\000\000\200?\000\000\200?\000\000\200?\000\000\200?\000\000\200?\000\000\200?\000\000\200?\000\000\200?\000\000\200?\000\000\200?\000\000\200?\000\000\200?\000\000\200?\000\000\200?\000\000\200?\000\000\200?\000\000\200?\000\000\200?\000\000\200?\000\000\200?\000\000\200?\000\000\200?\000\000\200?\000\000\200?\000\000\200?\000\000\200?\000\000\200?\000\000\200?\000\000\200?\000\000\200?\000\000\200?\000\000\200?\000\000\200?\000\000\200?\000\000\200?\000\000\200?\000\000\200?\000\000\200?\000\000\200?\000\000\200?\000\000\200?\000\000\200?\000\000\200?\000\000\200?\000\000\200?\000\000\200?\000\000\200?\000\000\200?\000\000\200?\000\000\200?\000\000\200?\000\000\200?\000\000\200?\000\000\200?\000\000\200?\000\000\200?\000\000\200?\000\000\200?\000\000\200?\000\000\200?\000\000\200?\000\000\200?\000\000\200?\000\000\200?\000\000\200?\000\000\200?\000\000\200?\000\000\200?\000\000\200?\000\000\200?\000\000\200?\000\000\200?\000\000\200?\000\000\200?\000\000\200?\000\000\200?\000\000\200?\000\000\200?\000\000\200?\000\000\200?\000\000\200?\000\000\200?\000\000\200?\000\000\200?\000\000\200?\000\000\200?\000\000\200?\000\000\200?\000\000\200?\000\000\200?\000\000\200?\000\000\200?\000\000\200?\000\000\200?\000\000\200?\000\000\200?\000\000\200?\000\000\200?\000\000\200?\000\000\200?\000\000\200?\000\000\200?\000\000\200?\000\000\200?\000\000\200?\000\000\200?\000\000\200?\000\000\200?\000\000\200?\000\000\200?\000\000\200?\000\000\200?\000\000\200?\000\000\200?\000\000\200?\000\000\200?\000\000\200?\000\000\200?\000\000\200?\000\000\200?\000\000\200?\000\000\200?\000\000\200?\000\000\200?\000\000\200?\000\000\200?\000\000\200?\000\000\200?\000\000\200?\000\000\200?\000\000\200?\000\000\200?\000\000\200?\000\000\200?\000\000\200?\000\000\200?\000\000\200?\000\000\200?\000\000\200?\000\000\200?\000\000\200?\000\000\200?\000\000\200?\000\000\200?\000\000\200?\000\000\200?\000\000\200?\000\000\200?\000\000\200?\000\000\200?\000\000\200?\000\000\200?\000\000\200?\000\000\200?\000\000\200?\000\000\200?\000\000\200?\000\000\200?\000\000\200?\000\000\200?\000\000\200?\000\000\200?\000\000\200?\000\000\200?\000\000\200?\000\000\200?\000\000\200?\000\000\200?\000\000\200?\000\000\200?\000\000\200?\000\000\200?\000\000\200?\000\000\200?\000\000\200?\000\000\200?\000\000\200?\000\000\200?\000\000\200?\000\000\200?\000\000\200?\000\000\200?\000\000\200?\000\000\200?\000\000\200?\000\000\200?\000\000\200?\000\000\200?\000\000\200?\000\000\200?\000\000\200?\000\000\200?\000\000\200?\000\000\200?\000\000\200?\000\000\200?\000\000\200?\000\000\200?\000\000\200?\000\000\200?\000\000\200?\000\000\200?\000\000\200?\000\000\200?\000\000\200?\000\000\200?\000\000\200?\000\000\200?\000\000\200?\000\000\200?\000\000\200?\000\000\200?\000\000\200?\000\000\200?\000\000\200?\000\000\200?\000\000\200?\000\000\200?\000\000\200?\000\000\200?\000\000\200?\000\000\200?\000\000\200?\000\000\200?\000\000\200?\000\000\200?\000\000\200?\000\000\200?\000\000\200?\000\000\200?\000\000\200?\000\000\200?\000\000\200?\000\000\200?\000\000\200?\000\000\200?\000\000\200?\000\000\200?\000\000\200?\000\000\200?\000\000\200?\000\000\200?\000\000\200?\000\000\200?\000\000\200?\000\000\200?\000\000\200?\000\000\200?\000\000\200?\000\000\200?\000\000\200?\000\000\200?\000\000\200?\000\000\200?\000\000\200?\000\000\200?\000\000\200?\000\000\200?\000\000\200?\000\000\200?\000\000\200?\000\000\200?\000\000\200?\000\000\200?\000\000\200?\000\000\200?\000\000\200?\000\000\200?\000\000\200?\000\000\200?\000\000\200?\000\000\200?\000\000\200?\000\000\200?\000\000\200?\000\000\200?\000\000\200?\000\000\200?\000\000\200?\000\000\200?\000\000\200?\000\000\200?\000\000\200?\000\000\200?\000\000\200?\000\000\200?\000\000\200?\000\000\200?\000\000\200?\000\000\200?\000\000\200?\000\000\200?\000\000\200?\000\000\200?\000\000\200?\000\000\200?\000\000\200?\000\000\200?\000\000\200?\000\000\200?\000\000\200?\000\000\200?\000\000\200?\000\000\200?\000\000\200?\000\000\200?\000\000\200?\000\000\200?\000\000\200?\000\000\200?\000\000\200?\000\000\200?\000\000\200?\000\000\200?\000\000\200?\000\000\200?\000\000\200?\000\000\200?\000\000\200?\000\000\200?\000\000\200?\000\000\200?\000\000\200?\000\000\200?\000\000\200?\000\000\200?\000\000\200?\000\000\200?\000\000\200?"
      }
    }
  }
}
node {
  name: "Const_1"
  op: "Const"
  attr {
    key: "_output_shapes"
    value {
      list {
        shape {
          dim {
            size: 1598
          }
        }
      }
    }
  }
  attr {
    key: "dtype"
    value {
      type: DT_FLOAT
    }
  }
  attr {
    key: "value"
    value {
      tensor {
        dtype: DT_FLOAT
        tensor_shape {
          dim {
            size: 1598
          }
        }
        tensor_content: "#\203!<#\203!<#\203!<#\203!<#\203!<#\203!<#\203!<#\203!<#\203!<#\203!<#\203!<#\203!<#\203!<#\203!<#\203!<#\203!<#\203!<#\203!<#\203!<#\203!<#\203!<#\203!<#\203!<#\203!<#\203!<#\203!<#\203!<#\203!<#\203!<#\203!<#\203!<#\203!<#\203!<#\203!<#\203!<#\203!<#\203!<#\203!<#\203!<\006\272\004;\006\272\004;\006\272\004;\006\272\004;\006\272\004;\006\272\004;\006\272\004;\006\272\004;\006\272\004;\006\272\004;\006\272\004;\006\272\004;\006\272\004;\006\272\004;\006\272\004;\006\272\004;\006\272\004;\006\272\004;\006\272\004;\006\272\004;\006\272\004;\006\272\004;\006\272\004;\006\272\004;\006\272\004;\006\272\004;\006\272\004;\006\272\004;\006\272\004;\006\272\004;\006\272\004;\006\272\004;\006\272\004;\006\272\004;\006\272\004;\006\272\004;\006\272\004;\006\272\004;\006\272\004;\006\272\004;\006\272\004;\006\272\004;\006\272\004;\006\272\004;\006\272\004;\006\272\004;\006\272\004;\006\272\004;\006\272\004;\006\272\004;\006\272\004;\006\272\004;\006\272\004;\006\272\004;\006\272\004;\006\272\004;\006\272\004;\006\272\004;\006\272\004;\006\272\004;\006\272\004;\006\272\004;\006\272\004;\006\272\004;\313\303\241\274\313\303\241\274\313\303\241\274\313\303\241\274\313\303\241\274\313\303\241\274\313\303\241\274\313\303\241\274\313\303\241\274\313\303\241\274\313\303\241\274\313\303\241\274\313\303\241\274\313\303\241\274\313\303\241\274\313\303\241\274\313\303\241\274\313\303\241\274\313\303\241\274\313\303\241\274\313\303\241\274\313\303\241\274\313\303\241\274\313\303\241\274\313\303\241\274\313\303\241\274\313\303\241\274\313\303\241\274\313\303\241\274\313\303\241\274\313\303\241\274\313\303\241\274\313\303\241\274\313\303\241\274\313\303\241\274\313\303\241\274\313\303\241\274\313\303\241\274\313\303\241\274\313\303\241\274\313\303\241\274\313\303\241\274\313\303\241\274\313\303\241\274\313\303\241\274\313\303\241\274\313\303\241\274\313\303\241\274\313\303\241\274\313\303\241\274\313\303\241\274\313\303\241\274\313\303\241\274\313\303\241\274\313\303\241\274\313\303\241\274\313\303\241\274\313\303\241\274\313\303\241\274\313\303\241\274\313\303\241\274\313\303\241\274\313\303\241\274\313\303\241\274\337\354:\274\337\354:\274\337\354:\274\337\354:\274\337\354:\274\337\354:\274\337\354:\274\337\354:\274\337\354:\274\337\354:\274\337\354:\274\337\354:\274\337\354:\274\337\354:\274\337\354:\274\337\354:\274\337\354:\274\337\354:\274\337\354:\274\337\354:\274\337\354:\274\337\354:\274\337\354:\274\337\354:\274\337\354:\274\337\354:\274\337\354:\274\337\354:\274\337\354:\274\337\354:\274\337\354:\274\337\354:\274\337\354:\274\337\354:\274\337\354:\274\337\354:\274\337\354:\274\337\354:\274\337\354:\274\337\354:\274\337\354:\274\337\354:\274\337\354:\274\337\354:\274\337\354:\274\337\354:\274\337\354:\274\337\354:\274\337\354:\274\337\354:\274\337\354:\274\337\354:\274\337\354:\274\337\354:\274\337\354:\274\337\354:\274\337\354:\274\337\354:\274\337\354:\274\337\354:\274\337\354:\274\337\354:\274\337\354:\274\3471F\273\3471F\273\3471F\273\3471F\273\3471F\273\3471F\273\3471F\273\3471F\273\3471F\273\3471F\273\3471F\273\3471F\273\3471F\273\3471F\273\3471F\273\3471F\273\3471F\273\3471F\273\3471F\273\3471F\273\3471F\273\3471F\273\3471F\273\3471F\273\3471F\273\3471F\273\3471F\273\3471F\273\3471F\273\3471F\273\3471F\273\3471F\273\3471F\273\3471F\273\3471F\273\3471F\273\3471F\273\3471F\273\3471F\273\3471F\273\3471F\273\3471F\273\3471F\273\3471F\273\3471F\273\3471F\273\3471F\273\3471F\273\3471F\273\3471F\273\3471F\273\3471F\273\3471F\273\3471F\273\3471F\273\3471F\273\3471F\273\3471F\273\3471F\273\3471F\273\3471F\273\3471F\273\313\265G;\313\265G;\313\265G;\313\265G;\313\265G;\313\265G;\313\265G;\313\265G;\313\265G;\313\265G;\313\265G;\313\265G;\313\265G;\313\265G;\313\265G;\313\265G;\313\265G;\313\265G;\313\265G;\313\265G;\313\265G;\313\265G;\313\265G;\313\265G;\313\265G;\313\265G;\313\265G;\313\265G;\313\265G;\313\265G;\313\265G;\313\265G;\313\265G;\313\265G;\313\265G;\313\265G;\313\265G;\313\265G;\313\265G;\313\265G;\313\265G;\313\265G;\313\265G;\313\265G;\313\265G;\313\265G;\313\265G;\313\265G;\313\265G;\313\265G;\313\265G;\313\265G;\313\265G;\313\265G;\313\265G;\313\265G;\313\265G;\313\265G;\313\265G;\313\265G;\313\265G;\313\265G;\313\265G;\224\302O<\224\302O<\224\302O<\224\302O<\224\302O<\224\302O<\224\302O<\224\302O<\224\302O<\224\302O<\224\302O<\224\302O<\224\302O<\224\302O<\224\302O<\224\302O<\224\302O<\224\302O<\224\302O<\224\302O<\224\302O<\224\302O<\224\302O<\224\302O<\224\302O<\224\302O<\224\302O<\224\302O<\224\302O<\224\302O<\224\302O<\224\302O<\224\302O<\224\302O<\224\302O<\224\302O<\224\302O<\224\302O<\224\302O<\224\302O<\224\302O<\224\302O<\224\302O<\224\302O<\224\302O<\224\302O<\224\302O<\224\302O<\224\302O<\224\302O<\224\302O<\224\302O<\224\302O<\224\302O<\224\302O<\224\302O<\224\302O<\224\302O<\224\302O<\224\302O<\224\302O<\224\302O<\224\302O<\224\302O<!\346\000<!\346\000<!\346\000<!\346\000<!\346\000<!\346\000<!\346\000<!\346\000<!\346\000<!\346\000<!\346\000<!\346\000<!\346\000<!\346\000<!\346\000<!\346\000<!\346\000<!\346\000<!\346\000<!\346\000<!\346\000<!\346\000<!\346\000<!\346\000<!\346\000<!\346\000<!\346\000<!\346\000<!\346\000<!\346\000<!\346\000<!\346\000<!\346\000<!\346\000<!\346\000<!\346\000<!\346\000<!\346\000<!\346\000<!\346\000<!\346\000<!\346\000<!\346\000<!\346\000<!\346\000<!\346\000<!\346\000<!\346\000<!\346\000<!\346\000<!\346\000<!\346\000<!\346\000<!\346\000<!\346\000<!\346\000<!\346\000<!\346\000<!\346\000<!\346\000<!\346\000<!\346\000<!\346\000<\210\221g<\210\221g<\210\221g<\210\221g<\210\221g<\210\221g<\210\221g<\210\221g<\210\221g<\210\221g<\210\221g<\210\221g<\210\221g<\210\221g<\210\221g<\210\221g<\210\221g<\210\221g<\210\221g<\210\221g<\210\221g<\210\221g<\210\221g<\210\221g<\210\221g<\210\221g<\210\221g<\210\221g<\210\221g<\210\221g<\210\221g<\210\221g<\210\221g<\210\221g<\210\221g<\210\221g<\210\221g<\210\221g<\210\221g<\210\221g<\210\221g<\210\221g<\210\221g<\210\221g<\210\221g<\210\221g<\210\221g<\210\221g<\210\221g<\210\221g<\210\221g<\210\221g<\210\221g<\210\221g<\210\221g<\210\221g<\210\221g<\210\221g<\210\221g<\210\221g<\210\221g<\210\221g<\223\025:<\223\025:<\223\025:<\223\025:<\223\025:<\223\025:<\223\025:<\223\025:<\223\025:<\223\025:<\223\025:<\223\025:<\223\025:<\223\025:<\223\025:<\223\025:<\223\025:<\223\025:<\223\025:<\223\025:<\223\025:<\223\025:<\223\025:<\223\025:<\223\025:<\223\025:<\223\025:<\223\025:<\223\025:<\223\025:<\223\025:<\223\025:<\223\025:<\223\025:<\223\025:<\223\025:<\223\025:<\223\025:<\223\025:<\223\025:<\223\025:<\223\025:<\223\025:<\223\025:<\223\025:<\223\025:<\223\025:<\223\025:<\223\025:<\223\025:<\223\025:<\223\025:<\223\025:<\223\025:<\223\025:<\223\025:<\223\025:<\223\025:<\223\025:<\223\025:<\223\025:<\223\025:<\223\025:<\252\261;<\252\261;<\252\261;<\252\261;<\252\261;<\252\261;<\252\261;<\252\261;<\252\261;<\252\261;<\252\261;<\252\261;<\252\261;<\252\261;<\252\261;<\252\261;<\252\261;<\252\261;<\252\261;<\252\261;<\252\261;<\252\261;<\252\261;<\252\261;<\252\261;<\252\261;<\252\261;<\252\261;<\252\261;<\252\261;<\252\261;<\252\261;<\252\261;<\252\261;<\252\261;<\252\261;<\252\261;<\252\261;<\252\261;<\252\261;<\252\261;<\252\261;<\252\261;<\252\261;<\252\261;<\252\261;<\252\261;<\252\261;<\252\261;<\252\261;<\252\261;<\252\261;<\252\261;<\252\261;<\252\261;<\252\261;<\252\261;<\252\261;<\252\261;<\252\261;<\252\261;<\252\261;<\252\261;<\252\261;<\256#\r:\256#\r:\256#\r:\256#\r:\256#\r:\256#\r:\256#\r:\256#\r:\256#\r:\256#\r:\256#\r:\256#\r:\256#\r:\256#\r:\256#\r:\256#\r:\256#\r:\256#\r:\256#\r:\256#\r:\256#\r:\256#\r:\256#\r:\256#\r:\256#\r:\256#\r:\256#\r:\256#\r:\256#\r:\256#\r:\256#\r:\256#\r:\256#\r:\256#\r:\256#\r:\256#\r:\256#\r:\256#\r:\256#\r:\256#\r:\256#\r:\256#\r:\256#\r:\256#\r:\256#\r:\256#\r:\256#\r:\256#\r:\256#\r:\256#\r:\256#\r:\256#\r:\256#\r:\256#\r:\256#\r:\256#\r:\256#\r:\256#\r:\256#\r:\256#\r:\256#\r:\256#\r:\256#\r:+:o<+:o<+:o<+:o<+:o<+:o<+:o<+:o<+:o<+:o<+:o<+:o<+:o<+:o<+:o<+:o<+:o<+:o<+:o<+:o<+:o<+:o<+:o<+:o<+:o<+:o<+:o<+:o<+:o<+:o<+:o<+:o<+:o<+:o<+:o<+:o<+:o<+:o<+:o<+:o<+:o<+:o<+:o<+:o<+:o<+:o<+:o<+:o<+:o<+:o<+:o<+:o<+:o<+:o<+:o<+:o<+:o<+:o<+:o<+:o<+:o<+:o<+:o<\036\274\005<\036\274\005<\036\274\005<\036\274\005<\036\274\005<\036\274\005<\036\274\005<\036\274\005<\036\274\005<\036\274\005<\036\274\005<\036\274\005<\036\274\005<\036\274\005<\036\274\005<\036\274\005<\036\274\005<\036\274\005<\036\274\005<\036\274\005<\036\274\005<\036\274\005<\036\274\005<\036\274\005<\036\274\005<\036\274\005<\036\274\005<\036\274\005<\036\274\005<\036\274\005<\036\274\005<\036\274\005<\036\274\005<\036\274\005<\036\274\005<\036\274\005<\036\274\005<\036\274\005<\036\274\005<\036\274\005<\036\274\005<\036\274\005<\036\274\005<\036\274\005<\036\274\005<\036\274\005<\036\274\005<\036\274\005<\036\274\005<\036\274\005<\036\274\005<\036\274\005<\036\274\005<\036\274\005<\036\274\005<\036\274\005<\036\274\005<\036\274\005<\036\274\005<\036\274\005<\036\274\005<\036\274\005<\036\274\005<FUP<FUP<FUP<FUP<FUP<FUP<FUP<FUP<FUP<FUP<FUP<FUP<FUP<FUP<FUP<FUP<FUP<FUP<FUP<FUP<FUP<FUP<FUP<FUP<FUP<FUP<FUP<FUP<FUP<FUP<FUP<FUP<FUP<FUP<FUP<FUP<FUP<FUP<FUP<FUP<FUP<FUP<FUP<FUP<FUP<FUP<FUP<FUP<FUP<FUP<FUP<FUP<FUP<FUP<FUP<FUP<FUP<FUP<FUP<FUP<FUP<FUP<FUP<\317\300C<\317\300C<\317\300C<\317\300C<\317\300C<\317\300C<\317\300C<\317\300C<\317\300C<\317\300C<\317\300C<\317\300C<\317\300C<\317\300C<\317\300C<\317\300C<\317\300C<\317\300C<\317\300C<\317\300C<\317\300C<\317\300C<\317\300C<\317\300C<\317\300C<\317\300C<\317\300C<\317\300C<\317\300C<\317\300C<\317\300C<\317\300C<\317\300C<\317\300C<\317\300C<\317\300C<\317\300C<\317\300C<\317\300C<\317\300C<\317\300C<\317\300C<\317\300C<\317\300C<\317\300C<\317\300C<\317\300C<\317\300C<\317\300C<\317\300C<\317\300C<\317\300C<\317\300C<\317\300C<\317\300C<\317\300C<\317\300C<\317\300C<\317\300C<\317\300C<\317\300C<\317\300C<\317\300C<\264\314\027<\264\314\027<\264\314\027<\264\314\027<\264\314\027<\264\314\027<\264\314\027<\264\314\027<\264\314\027<\264\314\027<\264\314\027<\264\314\027<\264\314\027<\264\314\027<\264\314\027<\264\314\027<\264\314\027<\264\314\027<\264\314\027<\264\314\027<\264\314\027<\264\314\027<\264\314\027<\264\314\027<\264\314\027<\264\314\027<\264\314\027<\264\314\027<\264\314\027<\264\314\027<\264\314\027<\264\314\027<\264\314\027<\264\314\027<\264\314\027<\264\314\027<\264\314\027<\264\314\027<\264\314\027<\264\314\027<\264\314\027<\264\314\027<\264\314\027<\264\314\027<\264\314\027<\264\314\027<\264\314\027<\264\314\027<\264\314\027<\264\314\027<\264\314\027<\264\314\027<\264\314\027<\264\314\027<\264\314\027<\264\314\027<\264\314\027<\264\314\027<\264\314\027<\264\314\027<\264\314\027<\264\314\027<Rr\327;Rr\327;Rr\327;Rr\327;Rr\327;Rr\327;Rr\327;Rr\327;Rr\327;Rr\327;Rr\327;Rr\327;Rr\327;Rr\327;Rr\327;Rr\327;Rr\327;Rr\327;Rr\327;Rr\327;Rr\327;Rr\327;Rr\327;Rr\327;Rr\327;Rr\327;Rr\327;Rr\327;Rr\327;Rr\327;Rr\327;Rr\327;Rr\327;Rr\327;Rr\327;Rr\327;Rr\327;Rr\327;Rr\327;Rr\327;Rr\327;Rr\327;Rr\327;Rr\327;Rr\327;Rr\327;Rr\327;Rr\327;Rr\327;Rr\327;Rr\327;Rr\327;Rr\327;Rr\327;Rr\327;Rr\327;Rr\327;Rr\327;Rr\327;Rr\327;Rr\327;Rr\327;Rr\327;\231\"\214;\231\"\214;\231\"\214;\231\"\214;\231\"\214;\231\"\214;\231\"\214;\231\"\214;\231\"\214;\231\"\214;\231\"\214;\231\"\214;\231\"\214;\231\"\214;\231\"\214;\231\"\214;\231\"\214;\231\"\214;\231\"\214;\231\"\214;\231\"\214;\231\"\214;\231\"\214;\231\"\214;\231\"\214;\231\"\214;\231\"\214;\231\"\214;\231\"\214;\231\"\214;\231\"\214;\231\"\214;\231\"\214;\231\"\214;\231\"\214;\231\"\214;\231\"\214;\231\"\214;\231\"\214;\231\"\214;\231\"\214;\231\"\214;\231\"\214;\231\"\214;\231\"\214;\231\"\214;\231\"\214;\231\"\214;\231\"\214;\231\"\214;\231\"\214;\231\"\214;\231\"\214;\231\"\214;\231\"\214;\231\"\214;\231\"\214;\231\"\214;\231\"\214;\231\"\214;\231\"\214;\231\"\214;\231\"\214;\231\"\214;\'\0143<\'\0143<\'\0143<\'\0143<\'\0143<\'\0143<\'\0143<\'\0143<\'\0143<\'\0143<\'\0143<\'\0143<\'\0143<\'\0143<\'\0143<\'\0143<\'\0143<\'\0143<\'\0143<\'\0143<\'\0143<\'\0143<\'\0143<\'\0143<\'\0143<\'\0143<\'\0143<\'\0143<\'\0143<\'\0143<\'\0143<\'\0143<\'\0143<\'\0143<\'\0143<\'\0143<\'\0143<\'\0143<\'\0143<\'\0143<\'\0143<\'\0143<\'\0143<\'\0143<\'\0143<\'\0143<\'\0143<\'\0143<\'\0143<\'\0143<\'\0143<\'\0143<\'\0143<\'\0143<\'\0143<\'\0143<\'\0143<\'\0143<\'\0143<\'\0143<\'\0143<\211D\203;\211D\203;\211D\203;\211D\203;\211D\203;\211D\203;\211D\203;\211D\203;\211D\203;\211D\203;\211D\203;\211D\203;\211D\203;\211D\203;\211D\203;\211D\203;\211D\203;\211D\203;\211D\203;\211D\203;\211D\203;\211D\203;\211D\203;\211D\203;\211D\203;\211D\203;\211D\203;\211D\203;\211D\203;\211D\203;\211D\203;\211D\203;\211D\203;\211D\203;\211D\203;\211D\203;\211D\203;\211D\203;\211D\203;\211D\203;\211D\203;\211D\203;\211D\203;\211D\203;\211D\203;\211D\203;\211D\203;\211D\203;\211D\203;\211D\203;\211D\203;\211D\203;\211D\203;\211D\203;\211D\203;\211D\203;\211D\203;\211D\203;\211D\203;\211D\203;\211D\203;\366\353M<\366\353M<\366\353M<\366\353M<\366\353M<\366\353M<\366\353M<\366\353M<\366\353M<\366\353M<\366\353M<\366\353M<\366\353M<\366\353M<\366\353M<\366\353M<\366\353M<\366\353M<\366\353M<\366\353M<\366\353M<\366\353M<\366\353M<\366\353M<\366\353M<\366\353M<\366\353M<\366\353M<\366\353M<\366\353M<\366\353M<\366\353M<\366\353M<\366\353M<\366\353M<\366\353M<\366\353M<\366\353M<\366\353M<\366\353M<\366\353M<\366\353M<\366\353M<\366\353M<\366\353M<\366\353M<\366\353M<\366\353M<\366\353M<\366\353M<\366\353M<\366\353M<\366\353M<\366\353M<\366\353M<\366\353M<\366\353M<\366\353M<\366\353M<\366\353M<\366\353M<\366\353M<\366\353M<\366\353M<k\"u<k\"u<k\"u<k\"u<k\"u<k\"u<k\"u<k\"u<k\"u<k\"u<k\"u<k\"u<k\"u<k\"u<k\"u<k\"u<k\"u<k\"u<k\"u<k\"u<k\"u<k\"u<k\"u<k\"u<k\"u<k\"u<k\"u<k\"u<k\"u<k\"u<k\"u<k\"u<k\"u<k\"u<k\"u<k\"u<k\"u<k\"u<k\"u<k\"u<k\"u<k\"u<k\"u<k\"u<k\"u<k\"u<k\"u<k\"u<k\"u<k\"u<k\"u<k\"u<k\"u<k\"u<k\"u<k\"u<k\"u<k\"u<k\"u<k\"u<k\"u<k\"u<k\"u<k\"u</\021\303:/\021\303:/\021\303:/\021\303:/\021\303:/\021\303:/\021\303:/\021\303:/\021\303:/\021\303:/\021\303:/\021\303:/\021\303:/\021\303:/\021\303:/\021\303:/\021\303:/\021\303:/\021\303:/\021\303:/\021\303:/\021\303:/\021\303:/\021\303:/\021\303:/\021\303:/\021\303:/\021\303:/\021\303:/\021\303:/\021\303:/\021\303:/\021\303:/\021\303:/\021\303:/\021\303:/\021\303:/\021\303:/\021\303:/\021\303:/\021\303:/\021\303:/\021\303:/\021\303:/\021\303:/\021\303:/\021\303:/\021\303:/\021\303:/\021\303:/\021\303:/\021\303:/\021\303:/\021\303:/\021\303:/\021\303:/\021\303:/\021\303:/\021\303:/\021\303:/\021\303:/\021\303:/\021\303:\306\227z<\306\227z<\306\227z<\306\227z<\306\227z<\306\227z<\306\227z<\306\227z<\306\227z<\306\227z<\306\227z<\306\227z<\306\227z<\306\227z<\306\227z<\306\227z<\306\227z<\306\227z<\306\227z<\306\227z<\306\227z<\306\227z<\306\227z<\306\227z<\306\227z<\306\227z<\306\227z<\306\227z<\306\227z<\306\227z<\306\227z<\306\227z<\306\227z<\306\227z<\306\227z<\306\227z<\306\227z<\306\227z<\306\227z<\306\227z<\306\227z<\306\227z<\306\227z<\306\227z<\306\227z<\306\227z<\306\227z<\306\227z<\306\227z<\306\227z<\306\227z<\306\227z<\306\227z<\306\227z<\306\227z<\306\227z<\306\227z<\306\227z<\306\227z<\306\227z<\306\227z<\306\227z<\247\177\206<\247\177\206<\247\177\206<\247\177\206<\247\177\206<\247\177\206<\247\177\206<\247\177\206<\247\177\206<\247\177\206<\247\177\206<\247\177\206<\247\177\206<\247\177\206<\247\177\206<\247\177\206<\247\177\206<\247\177\206<\247\177\206<\247\177\206<\247\177\206<\247\177\206<\247\177\206<\247\177\206<\247\177\206<\247\177\206<\247\177\206<\247\177\206<\247\177\206<\247\177\206<\247\177\206<\247\177\206<\247\177\206<\247\177\206<\247\177\206<\247\177\206<\247\177\206<\247\177\206<\247\177\206<\247\177\206<\247\177\206<\247\177\206<\247\177\206<\247\177\206<\247\177\206<\247\177\206<\247\177\206<\247\177\206<"
      }
    }
  }
}
node {
  name: "Const_2"
  op: "Const"
  attr {
    key: "_output_shapes"
    value {
      list {
        shape {
          dim {
            size: 1598
          }
        }
      }
    }
  }
  attr {
    key: "dtype"
    value {
      type: DT_FLOAT
    }
  }
  attr {
    key: "value"
    value {
      tensor {
        dtype: DT_FLOAT
        tensor_shape {
          dim {
            size: 1598
          }
        }
        tensor_content: "\n\360z?\n\360z?\n\360z?\n\360z?\n\360z?\n\360z?\n\360z?\n\360z?\n\360z?\n\360z?\n\360z?\n\360z?\n\360z?\n\360z?\n\360z?\n\360z?\n\360z?\n\360z?\032\341~?\032\341~?\032\341~?\032\341~?\032\341~?\032\341~?\032\341~?\032\341~?\032\341~?\032\341~?\032\341~?\032\341~?\032\341~?\032\341~?\032\341~?\032\341~?\032\341~?\032\341~?\032\341~?\032\341~?\032\341~?\000\000\200?\000\000\200?\000\000\200?\000\000\200?\000\000\200?\000\000\200?\000\000\200?\000\000\200?\000\000\200?\000\000\200?\000\000\200?\000\000\200?\000\000\200?\000\000\200?\000\000\200?\000\000\200?\000\000\200?\000\000\200?\000\000\200?\000\000\200?\000\000\200?\000\000\200?\000\000\200?\000\000\200?\000\000\200?\000\000\200?\000\000\200?\000\000\200?\000\000\200?\000\000\200?\000\000\200?\000\000\200?\000\000\200?\000\000\200?\000\000\200?\000\000\200?\000\000\200?\000\000\200?\000\000\200?\000\000\200?\000\000\200?\000\000\200?i6}?i6}?i6}?i6}?i6}?i6}?i6}?i6}?i6}?i6}?i6}?i6}?i6}?i6}?i6}?i6}?i6}?i6}?i6}?i6}?i6}?i6}?\213Bu?\213Bu?\213Bu?\213Bu?\213Bu?\213Bu?\213Bu?\213Bu?\213Bu?\213Bu?\213Bu?\213Bu?\213Bu?\213Bu?\213Bu?\213Bu?\213Bu?\213Bu?\213Bu?\213Bu?\213Bu?\213Bu??\210k??\210k??\210k??\210k??\210k??\210k??\210k??\210k??\210k??\210k??\210k??\210k??\210k??\210k??\210k??\210k??\210k??\210k??\210k??\210k?\004@\\?\004@\\?\004@\\?\004@\\?\004@\\?\004@\\?\004@\\?\004@\\?\004@\\?\004@\\?\004@\\?\004@\\?\004@\\?\004@\\?\004@\\?\004@\\?\004@\\?\004@\\?\004@\\?\004@\\?\004@\\?\004@\\?\373\300K?\373\300K?\373\300K?\373\300K?\373\300K?\373\300K?\373\300K?\373\300K?\373\300K?\373\300K?\373\300K?\373\300K?\373\300K?\373\300K?\373\300K?\373\300K?\373\300K?\373\300K?\373\300K?\373\300K?\373\300K?\373\300K?iJ??iJ??iJ??iJ??iJ??iJ??iJ??iJ??iJ??iJ??iJ??iJ??iJ??iJ??iJ??iJ??iJ??iJ??iJ??iJ??o\3634?o\3634?o\3634?o\3634?o\3634?o\3634?o\3634?o\3634?o\3634?o\3634?o\3634?o\3634?o\3634?o\3634?o\3634?o\3634?o\3634?o\3634?o\3634?o\3634?o\3634?\016+2?\016+2?\016+2?\016+2?\016+2?\016+2?\016+2?\016+2?\016+2?\016+2?\016+2?\016+2?\016+2?\016+2?\016+2?\016+2?\016+2?\016+2?\016+2?\016+2?\365\241.?\365\241.?\365\241.?\365\241.?\365\241.?\365\241.?\365\241.?\365\241.?\365\241.?\365\241.?\365\241.?\365\241.?\365\241.?\365\241.?\365\241.?\365\241.?\365\241.?\365\241.?\365\241.?\256\005.?\256\005.?\256\005.?\256\005.?\256\005.?\256\005.?\256\005.?\256\005.?\256\005.?\256\005.?\256\005.?\256\005.?\256\005.?\256\005.?\256\005.?\256\005.?\256\005.?\256\005.?\256\005.?\256\005.?\256\005.?\256\005.?\256\005.?\331*3?\331*3?\331*3?\331*3?\331*3?\331*3?\331*3?\331*3?\331*3?\331*3?\331*3?\331*3?\331*3?\331*3?\331*3?\331*3?\331*3?\331*3?\331*3?\331*3?\331*3?\276\0275?\276\0275?\276\0275?\276\0275?\276\0275?\276\0275?\276\0275?\276\0275?\276\0275?\276\0275?\276\0275?\276\0275?\276\0275?\276\0275?\276\0275?\276\0275?\276\0275?\276\0275?\276\0275?\276\0275?\207\2528?\207\2528?\207\2528?\207\2528?\207\2528?\207\2528?\207\2528?\207\2528?\207\2528?\207\2528?\207\2528?\207\2528?\207\2528?\207\2528?\207\2528?\207\2528?\207\2528?\207\2528?\207\2528?\207\2528?\207\2528?\207\2528?a\213;?a\213;?a\213;?a\213;?a\213;?a\213;?a\213;?a\213;?a\213;?a\213;?a\213;?a\213;?a\213;?a\213;?a\213;?a\213;?a\213;?a\213;?a\213;?a\213;?a\213;?\016\244<?\016\244<?\016\244<?\016\244<?\016\244<?\016\244<?\016\244<?\016\244<?\016\244<?\016\244<?\016\244<?\016\244<?\016\244<?\016\244<?\016\244<?\016\244<?\016\244<?\016\244<?\016\244<?\016\244<?\016\244<?\016\244<?\016\207A?\016\207A?\016\207A?\016\207A?\016\207A?\016\207A?\016\207A?\016\207A?\016\207A?\016\207A?\016\207A?\016\207A?\016\207A?\016\207A?\016\207A?\016\207A?\016\207A?\016\207A?\016\207A?\016\207A?\016\207A?.\373B?.\373B?.\373B?.\373B?.\373B?.\373B?.\373B?.\373B?.\373B?.\373B?.\373B?.\373B?.\373B?.\373B?.\373B?.\373B?.\373B?.\373B?.\373B?.\373B?.\373B?z\025B?z\025B?z\025B?z\025B?z\025B?z\025B?z\025B?z\025B?z\025B?z\025B?z\025B?z\025B?z\025B?z\025B?z\025B?z\025B?z\025B?z\025B?z\025B?z\025B?z\025B?\217\375N?\217\375N?\217\375N?\217\375N?\217\375N?\217\375N?\217\375N?\217\375N?\217\375N?\217\375N?\217\375N?\217\375N?\217\375N?\217\375N?\217\375N?\217\375N?\217\375N?\217\375N?\217\375N?\217\375N?\217\375N?#\264L?#\264L?#\264L?#\264L?#\264L?#\264L?#\264L?#\264L?#\264L?#\264L?#\264L?#\264L?#\264L?#\264L?#\264L?#\264L?#\264L?#\264L?#\264L?#\264L?\037\245Q?\037\245Q?\037\245Q?\037\245Q?\037\245Q?\037\245Q?\037\245Q?\037\245Q?\037\245Q?\037\245Q?\037\245Q?\037\245Q?\037\245Q?\037\245Q?\037\245Q?\037\245Q?\037\245Q?\037\245Q?\037\245Q?a)U?a)U?a)U?a)U?a)U?a)U?a)U?a)U?a)U?a)U?a)U?a)U?a)U?a)U?a)U?a)U?a)U?a)U?a)U?a)U?a)U?a)U?a)U?\352\342R?\352\342R?\352\342R?\352\342R?\352\342R?\352\342R?\352\342R?\352\342R?\352\342R?\352\342R?\352\342R?\352\342R?\352\342R?\352\342R?\352\342R?\352\342R?\352\342R?\352\342R?\352\342R?\352\342R?!\315R?!\315R?!\315R?!\315R?!\315R?!\315R?!\315R?!\315R?!\315R?!\315R?!\315R?!\315R?!\315R?!\315R?!\315R?!\315R?!\315R?!\315R?!\315R?!\315R?!\315R?_}T?_}T?_}T?_}T?_}T?_}T?_}T?_}T?_}T?_}T?_}T?_}T?_}T?_}T?_}T?_}T?_}T?_}T?_}T?_}T?_}T?_}T?V\347V?V\347V?V\347V?V\347V?V\347V?V\347V?V\347V?V\347V?V\347V?V\347V?V\347V?V\347V?V\347V?V\347V?V\347V?V\347V?V\347V?V\347V?V\347V?V\347V?\205\026]?\205\026]?\205\026]?\205\026]?\205\026]?\205\026]?\205\026]?\205\026]?\205\026]?\205\026]?\205\026]?\205\026]?\205\026]?\205\026]?\205\026]?\205\026]?\205\026]?\205\026]?\205\026]?\205\026]?\205\026]?\205\026]?\205\026]?\310,\\?\310,\\?\310,\\?\310,\\?\310,\\?\310,\\?\310,\\?\310,\\?\310,\\?\310,\\?\310,\\?\310,\\?\310,\\?\310,\\?\310,\\?\310,\\?\310,\\?\310,\\?\310,\\?\310,\\?\310,\\?\317\304_?\317\304_?\317\304_?\317\304_?\317\304_?\317\304_?\317\304_?\317\304_?\317\304_?\317\304_?\317\304_?\317\304_?\317\304_?\317\304_?\317\304_?\317\304_?\317\304_?\317\304_?\317\304_?\317\304_?\317\304_?\200\016b?\200\016b?\200\016b?\200\016b?\200\016b?\200\016b?\200\016b?\200\016b?\200\016b?\200\016b?\200\016b?\200\016b?\200\016b?\200\016b?\200\016b?\200\016b?\200\016b?\200\016b?\200\016b?\200\016b?\200\016b?P\237j?P\237j?P\237j?P\237j?P\237j?P\237j?P\237j?P\237j?P\237j?P\237j?P\237j?P\237j?P\237j?P\237j?P\237j?P\237j?P\237j?P\237j?P\237j?P\237j?P\237j?\232Be?\232Be?\232Be?\232Be?\232Be?\232Be?\232Be?\232Be?\232Be?\232Be?\232Be?\232Be?\232Be?\232Be?\232Be?\232Be?\232Be?\232Be?\232Be?\232Be?\232Be?\270\223r?\270\223r?\270\223r?\270\223r?\270\223r?\270\223r?\270\223r?\270\223r?\270\223r?\270\223r?\270\223r?\270\223r?\270\223r?\270\223r?\270\223r?\270\223r?\270\223r?\270\223r?\270\223r?\263\335n?\263\335n?\263\335n?\263\335n?\263\335n?\263\335n?\263\335n?\263\335n?\263\335n?\263\335n?\263\335n?\263\335n?\263\335n?\263\335n?\263\335n?\263\335n?\263\335n?\263\335n?\263\335n?\263\335n?\263\335n?\263\335n?\263\335n?\252\253p?\252\253p?\252\253p?\252\253p?\252\253p?\252\253p?\252\253p?\252\253p?\252\253p?\252\253p?\252\253p?\252\253p?\252\253p?\252\253p?\252\253p?\252\253p?\252\253p?\252\253p?\252\253p?\302)n?\302)n?\302)n?\302)n?\302)n?\302)n?\302)n?\302)n?\302)n?\302)n?\302)n?\302)n?\302)n?\302)n?\302)n?\302)n?\302)n?\302)n?\302)n?\302)n?\302)n?\302)n?R\214r?R\214r?R\214r?R\214r?R\214r?R\214r?R\214r?R\214r?R\214r?R\214r?R\214r?R\214r?R\214r?R\214r?R\214r?R\214r?R\214r?R\214r?R\214r?R\214r?R\214r?R\214r?\342\326u?\342\326u?\342\326u?\342\326u?\342\326u?\342\326u?\342\326u?\342\326u?\342\326u?\342\326u?\342\326u?\342\326u?\342\326u?\342\326u?\342\326u?\342\326u?\342\326u?\342\326u?\342\326u?\342\326u?\273\205r?\273\205r?\273\205r?\273\205r?\273\205r?\273\205r?\273\205r?\273\205r?\273\205r?\273\205r?\273\205r?\273\205r?\273\205r?\273\205r?\273\205r?\273\205r?\273\205r?\273\205r?\273\205r?\273\205r?\273\205r?\273\205r?\273\205r?\031[r?\031[r?\031[r?\031[r?\031[r?\031[r?\031[r?\031[r?\031[r?\031[r?\031[r?\031[r?\031[r?\031[r?\031[r?\031[r?\031[r?\031[r?\031[r?\031[r?\r\353w?\r\353w?\r\353w?\r\353w?\r\353w?\r\353w?\r\353w?\r\353w?\r\353w?\r\353w?\r\353w?\r\353w?\r\353w?\r\353w?\r\353w?\r\353w?\r\353w?\r\353w?\r\353w?\r\353w?\r\353w?\r\353w?\250\326|?\250\326|?\250\326|?\250\326|?\250\326|?\250\326|?\250\326|?\250\326|?\250\326|?\250\326|?\250\326|?\250\326|?\250\326|?\250\326|?\250\326|?\250\326|?\250\326|?\250\326|?\250\326|?\250\326|?\250\326|?\220\t|?\220\t|?\220\t|?\220\t|?\220\t|?\220\t|?\220\t|?\220\t|?\220\t|?\220\t|?\220\t|?\220\t|?\220\t|?\220\t|?\220\t|?\220\t|?\220\t|?\220\t|?\220\t|?\220\t|?0\240|?0\240|?0\240|?0\240|?0\240|?0\240|?0\240|?0\240|?0\240|?0\240|?0\240|?0\240|?0\240|?0\240|?0\240|?0\240|?0\240|?0\240|?0\240|?0\240|?0\240|?/+|?/+|?/+|?/+|?/+|?/+|?/+|?/+|?/+|?/+|?/+|?/+|?/+|?/+|?/+|?/+|?/+|?/+|?/+|?/+|?j\251y?j\251y?j\251y?j\251y?j\251y?j\251y?j\251y?j\251y?j\251y?j\251y?j\251y?j\251y?j\251y?j\251y?j\251y?j\251y?j\251y?j\251y?j\251y?j\251y?j\251y?R\nw?R\nw?R\nw?R\nw?R\nw?R\nw?R\nw?R\nw?R\nw?R\nw?R\nw?R\nw?R\nw?R\nw?R\nw?R\nw?R\nw?R\nw?R\nw?R\nw?R\nw?\261\336s?\261\336s?\261\336s?\261\336s?\261\336s?\261\336s?\261\336s?\261\336s?\261\336s?\261\336s?\261\336s?\261\336s?\261\336s?\261\336s?\261\336s?\261\336s?\261\336s?\261\336s?\261\336s?\261\336s?\261\336s?\261\336s?\325\370x?\325\370x?\325\370x?\325\370x?\325\370x?\325\370x?\325\370x?\325\370x?\325\370x?\325\370x?\325\370x?\325\370x?\325\370x?\325\370x?\325\370x?\325\370x?\325\370x?\325\370x?\325\370x?\325\370x?Ihp?Ihp?Ihp?Ihp?Ihp?Ihp?Ihp?Ihp?Ihp?Ihp?Ihp?Ihp?Ihp?Ihp?Ihp?Ihp?Ihp?Ihp?Ihp?Ihp?Ihp?Ihp?_\342x?_\342x?_\342x?_\342x?_\342x?_\342x?_\342x?_\342x?_\342x?_\342x?_\342x?_\342x?_\342x?_\342x?_\342x?_\342x?_\342x?_\342x?_\342x?_\342x?_\342x?_\342x?\242\323{?\242\323{?\242\323{?\242\323{?\242\323{?\242\323{?\242\323{?\242\323{?\242\323{?\242\323{?\242\323{?\242\323{?\242\323{?\242\323{?\242\323{?\242\323{?\242\323{?\242\323{?\242\323{?\242\323{?$\261z?$\261z?$\261z?$\261z?$\261z?$\261z?$\261z?$\261z?$\261z?$\261z?$\261z?$\261z?$\261z?$\261z?$\261z?$\261z?$\261z?$\261z?$\261z?$\261z?$\261z?\000\000\200?\000\000\200?\000\000\200?\000\000\200?\000\000\200?\000\000\200?\000\000\200?\000\000\200?\000\000\200?\000\000\200?\000\000\200?\000\000\200?\000\000\200?\000\000\200?\000\000\200?\000\000\200?\000\000\200?\000\000\200?\000\000\200?\000\000\200?g\244{?g\244{?g\244{?g\244{?g\244{?g\244{?g\244{?g\244{?g\244{?g\244{?g\244{?g\244{?g\244{?g\244{?g\244{?g\244{?g\244{?g\244{?g\244{?g\244{?\000\000\200?\000\000\200?\000\000\200?\000\000\200?\000\000\200?\000\000\200?\000\000\200?\000\000\200?\000\000\200?\000\000\200?\000\000\200?\000\000\200?\000\000\200?\000\000\200?\000\000\200?\000\000\200?\000\000\200?\000\000\200?\000\000\200?\000\000\200?\000\000\200?\000\000\200?\255\233q?\255\233q?\255\233q?\255\233q?\255\233q?\255\233q?\255\233q?\255\233q?\255\233q?\255\233q?\255\233q?\255\233q?\255\233q?\255\233q?\255\233q?\255\233q?\255\233q?\255\233q?\255\233q?\346\"u?\346\"u?\346\"u?\346\"u?\346\"u?\346\"u?\346\"u?\346\"u?\346\"u?\346\"u?\346\"u?\346\"u?\346\"u?\346\"u?\346\"u?\346\"u?\346\"u?\346\"u?\346\"u?\346\"u?p\317{?p\317{?p\317{?p\317{?p\317{?p\317{?p\317{?p\317{?p\317{?p\317{?p\317{?p\317{?p\317{?p\317{?p\317{?p\317{?p\317{?p\317{?p\317{?p\317{?p\317{?p\317{?[}~?[}~?[}~?[}~?[}~?[}~?[}~?[}~?[}~?[}~?[}~?[}~?[}~?[}~?[}~?[}~?[}~?[}~?[}~?[}~?[}~?\032Pu?\032Pu?\032Pu?\032Pu?\032Pu?\032Pu?\032Pu?\032Pu?\032Pu?\032Pu?\032Pu?\032Pu?\032Pu?\032Pu?\032Pu?\032Pu?\032Pu?\032Pu?\032Pu?\032Pu?\032Pu?SKw?SKw?SKw?SKw?SKw?SKw?SKw?SKw?SKw?SKw?SKw?SKw?SKw?SKw?SKw?SKw?SKw?SKw?SKw?SKw?SKw?SKw?MS{?MS{?MS{?MS{?MS{?MS{?MS{?MS{?MS{?MS{?MS{?MS{?MS{?MS{?MS{?MS{?MS{?MS{?MS{?MS{?MS{?\306\330x?\306\330x?\306\330x?\306\330x?\306\330x?\306\330x?\306\330x?\306\330x?\306\330x?\306\330x?\306\330x?\306\330x?\306\330x?\306\330x?\306\330x?\306\330x?\306\330x?\306\330x?\306\330x?\306\330x?\306\330x?B\246\177?B\246\177?B\246\177?B\246\177?B\246\177?B\246\177?B\246\177?B\246\177?B\246\177?B\246\177?B\246\177?B\246\177?B\246\177?B\246\177?B\246\177?B\246\177?B\246\177?B\246\177?B\246\177?B\246\177?B\246\177?B\246\177?B\246\177?Lx}?Lx}?Lx}?Lx}?Lx}?Lx}?Lx}?Lx}?Lx}?Lx}?Lx}?Lx}?Lx}?Lx}?Lx}?Lx}?Lx}?Lx}?Lx}?\021uy?\021uy?\021uy?\021uy?\021uy?\021uy?\021uy?\021uy?\021uy?\021uy?\021uy?\021uy?\021uy?\021uy?\021uy?\021uy?\021uy?\021uy?\021uy?\021uy?\021uy?:(~?:(~?:(~?:(~?:(~?:(~?:(~?:(~?:(~?:(~?:(~?:(~?:(~?:(~?:(~?:(~?:(~?:(~?:(~?:(~?:(~?\317O\177?\317O\177?\317O\177?\317O\177?\317O\177?\317O\177?\317O\177?\317O\177?\317O\177?\317O\177?\317O\177?\317O\177?\317O\177?\317O\177?\317O\177?\317O\177?\317O\177?\317O\177?\317O\177?\000\000\200?\000\000\200?\000\000\200?\000\000\200?\000\000\200?\000\000\200?\000\000\200?\000\000\200?\000\000\200?\000\000\200?\000\000\200?\000\000\200?\000\000\200?\000\000\200?\000\000\200?\000\000\200?\000\000\200?\000\000\200?\000\000\200?\000\000\200?\000\000\200?\000\000\200?\204\212|?\204\212|?\204\212|?\204\212|?\204\212|?\204\212|?\204\212|?\204\212|?\204\212|?\204\212|?\204\212|?\204\212|?\204\212|?\204\212|?\204\212|?\204\212|?\204\212|?\204\212|?\204\212|?\204\212|?\204\212|?\261p\177?\261p\177?\261p\177?\261p\177?\261p\177?\261p\177?\261p\177?\261p\177?\261p\177?\261p\177?\261p\177?\261p\177?\261p\177?\261p\177?\261p\177?\261p\177?\261p\177?\261p\177?\261p\177?\261p\177?\000\000\200?\000\000\200?\000\000\200?\000\000\200?\000\000\200?\000\000\200?\000\000\200?"
      }
    }
  }
}
node {
  name: "Const_3"
  op: "Const"
  attr {
    key: "_output_shapes"
    value {
      list {
        shape {
          dim {
            size: 1598
          }
        }
      }
    }
  }
  attr {
    key: "dtype"
    value {
      type: DT_FLOAT
    }
  }
  attr {
    key: "value"
    value {
      tensor {
        dtype: DT_FLOAT
        tensor_shape {
          dim {
            size: 1598
          }
        }
        tensor_content: "\373\n\313\271\373\n\313\271\373\n\313\271\373\n\313\271\373\n\313\271\373\n\313\271\373\n\313\271\373\n\313\271\373\n\313\271\373\n\313\271\373\n\313\271\373\n\313\271\373\n\313\271\373\n\313\271\373\n\313\271\373\n\313\271\373\n\313\271\373\n\313\271h\255\200<h\255\200<h\255\200<h\255\200<h\255\200<h\255\200<h\255\200<h\255\200<h\255\200<h\255\200<h\255\200<h\255\200<h\255\200<h\255\200<h\255\200<h\255\200<h\255\200<h\255\200<h\255\200<h\255\200<h\255\200<\037\216\t<\037\216\t<\037\216\t<\037\216\t<\037\216\t<\037\216\t<\037\216\t<\037\216\t<\037\216\t<\037\216\t<\037\216\t<\037\216\t<\037\216\t<\037\216\t<\037\216\t<\037\216\t<\037\216\t<\037\216\t<\037\216\t<\037\216\t<\037\216\t<\037\216\t<\026YQ<\026YQ<\026YQ<\026YQ<\026YQ<\026YQ<\026YQ<\026YQ<\026YQ<\026YQ<\026YQ<\026YQ<\026YQ<\026YQ<\026YQ<\026YQ<\026YQ<\026YQ<\026YQ<\026YQ<\261e2\274\261e2\274\261e2\274\261e2\274\261e2\274\261e2\274\261e2\274\261e2\274\261e2\274\261e2\274\261e2\274\261e2\274\261e2\274\261e2\274\261e2\274\261e2\274\261e2\274\261e2\274\261e2\274\261e2\274\261e2\274\261e2\274t\244\000\275t\244\000\275t\244\000\275t\244\000\275t\244\000\275t\244\000\275t\244\000\275t\244\000\275t\244\000\275t\244\000\275t\244\000\275t\244\000\275t\244\000\275t\244\000\275t\244\000\275t\244\000\275t\244\000\275t\244\000\275t\244\000\275t\244\000\275t\244\000\275t\244\000\275\233u\"\275\233u\"\275\233u\"\275\233u\"\275\233u\"\275\233u\"\275\233u\"\275\233u\"\275\233u\"\275\233u\"\275\233u\"\275\233u\"\275\233u\"\275\233u\"\275\233u\"\275\233u\"\275\233u\"\275\233u\"\275\233u\"\275\233u\"\275\245\341\204\275\245\341\204\275\245\341\204\275\245\341\204\275\245\341\204\275\245\341\204\275\245\341\204\275\245\341\204\275\245\341\204\275\245\341\204\275\245\341\204\275\245\341\204\275\245\341\204\275\245\341\204\275\245\341\204\275\245\341\204\275\245\341\204\275\245\341\204\275\245\341\204\275\245\341\204\275\245\341\204\275\245\341\204\275\364c\231\275\364c\231\275\364c\231\275\364c\231\275\364c\231\275\364c\231\275\364c\231\275\364c\231\275\364c\231\275\364c\231\275\364c\231\275\364c\231\275\364c\231\275\364c\231\275\364c\231\275\364c\231\275\364c\231\275\364c\231\275\364c\231\275\364c\231\275\364c\231\275\364c\231\275\034\213z\275\034\213z\275\034\213z\275\034\213z\275\034\213z\275\034\213z\275\034\213z\275\034\213z\275\034\213z\275\034\213z\275\034\213z\275\034\213z\275\034\213z\275\034\213z\275\034\213z\275\034\213z\275\034\213z\275\034\213z\275\034\213z\275\034\213z\275:f]\275:f]\275:f]\275:f]\275:f]\275:f]\275:f]\275:f]\275:f]\275:f]\275:f]\275:f]\275:f]\275:f]\275:f]\275:f]\275:f]\275:f]\275:f]\275:f]\275:f]\275\207\365{\274\207\365{\274\207\365{\274\207\365{\274\207\365{\274\207\365{\274\207\365{\274\207\365{\274\207\365{\274\207\365{\274\207\365{\274\207\365{\274\207\365{\274\207\365{\274\207\365{\274\207\365{\274\207\365{\274\207\365{\274\207\365{\274\207\365{\274\217\217\242\274\217\217\242\274\217\217\242\274\217\217\242\274\217\217\242\274\217\217\242\274\217\217\242\274\217\217\242\274\217\217\242\274\217\217\242\274\217\217\242\274\217\217\242\274\217\217\242\274\217\217\242\274\217\217\242\274\217\217\242\274\217\217\242\274\217\217\242\274\217\217\242\274k\026e\273k\026e\273k\026e\273k\026e\273k\026e\273k\026e\273k\026e\273k\026e\273k\026e\273k\026e\273k\026e\273k\026e\273k\026e\273k\026e\273k\026e\273k\026e\273k\026e\273k\026e\273k\026e\273k\026e\273k\026e\273k\026e\273k\026e\273\3574\362<\3574\362<\3574\362<\3574\362<\3574\362<\3574\362<\3574\362<\3574\362<\3574\362<\3574\362<\3574\362<\3574\362<\3574\362<\3574\362<\3574\362<\3574\362<\3574\362<\3574\362<\3574\362<\3574\362<\3574\362<\357\0200<\357\0200<\357\0200<\357\0200<\357\0200<\357\0200<\357\0200<\357\0200<\357\0200<\357\0200<\357\0200<\357\0200<\357\0200<\357\0200<\357\0200<\357\0200<\357\0200<\357\0200<\357\0200<\357\0200<\203\245\241<\203\245\241<\203\245\241<\203\245\241<\203\245\241<\203\245\241<\203\245\241<\203\245\241<\203\245\241<\203\245\241<\203\245\241<\203\245\241<\203\245\241<\203\245\241<\203\245\241<\203\245\241<\203\245\241<\203\245\241<\203\245\241<\203\245\241<\203\245\241<\203\245\241<z_\177<z_\177<z_\177<z_\177<z_\177<z_\177<z_\177<z_\177<z_\177<z_\177<z_\177<z_\177<z_\177<z_\177<z_\177<z_\177<z_\177<z_\177<z_\177<z_\177<z_\177<\326\217\277;\326\217\277;\326\217\277;\326\217\277;\326\217\277;\326\217\277;\326\217\277;\326\217\277;\326\217\277;\326\217\277;\326\217\277;\326\217\277;\326\217\277;\326\217\277;\326\217\277;\326\217\277;\326\217\277;\326\217\277;\326\217\277;\326\217\277;\326\217\277;\326\217\277;v6\324<v6\324<v6\324<v6\324<v6\324<v6\324<v6\324<v6\324<v6\324<v6\324<v6\324<v6\324<v6\324<v6\324<v6\324<v6\324<v6\324<v6\324<v6\324<v6\324<v6\324<5 \366;5 \366;5 \366;5 \366;5 \366;5 \366;5 \366;5 \366;5 \366;5 \366;5 \366;5 \366;5 \366;5 \366;5 \366;5 \366;5 \366;5 \366;5 \366;5 \366;5 \366;p\313\226\273p\313\226\273p\313\226\273p\313\226\273p\313\226\273p\313\226\273p\313\226\273p\313\226\273p\313\226\273p\313\226\273p\313\226\273p\313\226\273p\313\226\273p\313\226\273p\313\226\273p\313\226\273p\313\226\273p\313\226\273p\313\226\273p\313\226\273p\313\226\273\0351\210=\0351\210=\0351\210=\0351\210=\0351\210=\0351\210=\0351\210=\0351\210=\0351\210=\0351\210=\0351\210=\0351\210=\0351\210=\0351\210=\0351\210=\0351\210=\0351\210=\0351\210=\0351\210=\0351\210=\0351\210=2\0025\2742\0025\2742\0025\2742\0025\2742\0025\2742\0025\2742\0025\2742\0025\2742\0025\2742\0025\2742\0025\2742\0025\2742\0025\2742\0025\2742\0025\2742\0025\2742\0025\2742\0025\2742\0025\2742\0025\274D\277\305<D\277\305<D\277\305<D\277\305<D\277\305<D\277\305<D\277\305<D\277\305<D\277\305<D\277\305<D\277\305<D\277\305<D\277\305<D\277\305<D\277\305<D\277\305<D\277\305<D\277\305<D\277\305<\021j\211<\021j\211<\021j\211<\021j\211<\021j\211<\021j\211<\021j\211<\021j\211<\021j\211<\021j\211<\021j\211<\021j\211<\021j\211<\021j\211<\021j\211<\021j\211<\021j\211<\021j\211<\021j\211<\021j\211<\021j\211<\021j\211<\021j\211<C\341.\274C\341.\274C\341.\274C\341.\274C\341.\274C\341.\274C\341.\274C\341.\274C\341.\274C\341.\274C\341.\274C\341.\274C\341.\274C\341.\274C\341.\274C\341.\274C\341.\274C\341.\274C\341.\274C\341.\274\320\224\323\271\320\224\323\271\320\224\323\271\320\224\323\271\320\224\323\271\320\224\323\271\320\224\323\271\320\224\323\271\320\224\323\271\320\224\323\271\320\224\323\271\320\224\323\271\320\224\323\271\320\224\323\271\320\224\323\271\320\224\323\271\320\224\323\271\320\224\323\271\320\224\323\271\320\224\323\271\320\224\323\271\350:\003<\350:\003<\350:\003<\350:\003<\350:\003<\350:\003<\350:\003<\350:\003<\350:\003<\350:\003<\350:\003<\350:\003<\350:\003<\350:\003<\350:\003<\350:\003<\350:\003<\350:\003<\350:\003<\350:\003<\350:\003<\350:\003<h :<h :<h :<h :<h :<h :<h :<h :<h :<h :<h :<h :<h :<h :<h :<h :<h :<h :<h :<h :<\376\275\353<\376\275\353<\376\275\353<\376\275\353<\376\275\353<\376\275\353<\376\275\353<\376\275\353<\376\275\353<\376\275\353<\376\275\353<\376\275\353<\376\275\353<\376\275\353<\376\275\353<\376\275\353<\376\275\353<\376\275\353<\376\275\353<\376\275\353<\376\275\353<\376\275\353<\376\275\353<\377R\207\273\377R\207\273\377R\207\273\377R\207\273\377R\207\273\377R\207\273\377R\207\273\377R\207\273\377R\207\273\377R\207\273\377R\207\273\377R\207\273\377R\207\273\377R\207\273\377R\207\273\377R\207\273\377R\207\273\377R\207\273\377R\207\273\377R\207\273\377R\207\273;\267\205<;\267\205<;\267\205<;\267\205<;\267\205<;\267\205<;\267\205<;\267\205<;\267\205<;\267\205<;\267\205<;\267\205<;\267\205<;\267\205<;\267\205<;\267\205<;\267\205<;\267\205<;\267\205<;\267\205<;\267\205<l\203\'<l\203\'<l\203\'<l\203\'<l\203\'<l\203\'<l\203\'<l\203\'<l\203\'<l\203\'<l\203\'<l\203\'<l\203\'<l\203\'<l\203\'<l\203\'<l\203\'<l\203\'<l\203\'<l\203\'<l\203\'<[4\033=[4\033=[4\033=[4\033=[4\033=[4\033=[4\033=[4\033=[4\033=[4\033=[4\033=[4\033=[4\033=[4\033=[4\033=[4\033=[4\033=[4\033=[4\033=[4\033=[4\033=\"9\273\274\"9\273\274\"9\273\274\"9\273\274\"9\273\274\"9\273\274\"9\273\274\"9\273\274\"9\273\274\"9\273\274\"9\273\274\"9\273\274\"9\273\274\"9\273\274\"9\273\274\"9\273\274\"9\273\274\"9\273\274\"9\273\274\"9\273\274\"9\273\274\321\353m=\321\353m=\321\353m=\321\353m=\321\353m=\321\353m=\321\353m=\321\353m=\321\353m=\321\353m=\321\353m=\321\353m=\321\353m=\321\353m=\321\353m=\321\353m=\321\353m=\321\353m=\321\353m=\211\245z\274\211\245z\274\211\245z\274\211\245z\274\211\245z\274\211\245z\274\211\245z\274\211\245z\274\211\245z\274\211\245z\274\211\245z\274\211\245z\274\211\245z\274\211\245z\274\211\245z\274\211\245z\274\211\245z\274\211\245z\274\211\245z\274\211\245z\274\211\245z\274\211\245z\274\211\245z\274\326\214\367;\326\214\367;\326\214\367;\326\214\367;\326\214\367;\326\214\367;\326\214\367;\326\214\367;\326\214\367;\326\214\367;\326\214\367;\326\214\367;\326\214\367;\326\214\367;\326\214\367;\326\214\367;\326\214\367;\326\214\367;\326\214\367;\306\262*\274\306\262*\274\306\262*\274\306\262*\274\306\262*\274\306\262*\274\306\262*\274\306\262*\274\306\262*\274\306\262*\274\306\262*\274\306\262*\274\306\262*\274\306\262*\274\306\262*\274\306\262*\274\306\262*\274\306\262*\274\306\262*\274\306\262*\274\306\262*\274\306\262*\274d\324\226<d\324\226<d\324\226<d\324\226<d\324\226<d\324\226<d\324\226<d\324\226<d\324\226<d\324\226<d\324\226<d\324\226<d\324\226<d\324\226<d\324\226<d\324\226<d\324\226<d\324\226<d\324\226<d\324\226<d\324\226<d\324\226<\242R^<\242R^<\242R^<\242R^<\242R^<\242R^<\242R^<\242R^<\242R^<\242R^<\242R^<\242R^<\242R^<\242R^<\242R^<\242R^<\242R^<\242R^<\242R^<\242R^<\332\017]\274\332\017]\274\332\017]\274\332\017]\274\332\017]\274\332\017]\274\332\017]\274\332\017]\274\332\017]\274\332\017]\274\332\017]\274\332\017]\274\332\017]\274\332\017]\274\332\017]\274\332\017]\274\332\017]\274\332\017]\274\332\017]\274\332\017]\274\332\017]\274\332\017]\274\332\017]\274\253\0014\272\253\0014\272\253\0014\272\253\0014\272\253\0014\272\253\0014\272\253\0014\272\253\0014\272\253\0014\272\253\0014\272\253\0014\272\253\0014\272\253\0014\272\253\0014\272\253\0014\272\253\0014\272\253\0014\272\253\0014\272\253\0014\272\253\0014\272\263\003\274<\263\003\274<\263\003\274<\263\003\274<\263\003\274<\263\003\274<\263\003\274<\263\003\274<\263\003\274<\263\003\274<\263\003\274<\263\003\274<\263\003\274<\263\003\274<\263\003\274<\263\003\274<\263\003\274<\263\003\274<\263\003\274<\263\003\274<\263\003\274<\263\003\274<d\225\242<d\225\242<d\225\242<d\225\242<d\225\242<d\225\242<d\225\242<d\225\242<d\225\242<d\225\242<d\225\242<d\225\242<d\225\242<d\225\242<d\225\242<d\225\242<d\225\242<d\225\242<d\225\242<d\225\242<d\225\242<L\250O\273L\250O\273L\250O\273L\250O\273L\250O\273L\250O\273L\250O\273L\250O\273L\250O\273L\250O\273L\250O\273L\250O\273L\250O\273L\250O\273L\250O\273L\250O\273L\250O\273L\250O\273L\250O\273L\250O\273l\376\030;l\376\030;l\376\030;l\376\030;l\376\030;l\376\030;l\376\030;l\376\030;l\376\030;l\376\030;l\376\030;l\376\030;l\376\030;l\376\030;l\376\030;l\376\030;l\376\030;l\376\030;l\376\030;l\376\030;l\376\030;\035\"\355\272\035\"\355\272\035\"\355\272\035\"\355\272\035\"\355\272\035\"\355\272\035\"\355\272\035\"\355\272\035\"\355\272\035\"\355\272\035\"\355\272\035\"\355\272\035\"\355\272\035\"\355\272\035\"\355\272\035\"\355\272\035\"\355\272\035\"\355\272\035\"\355\272\035\"\355\272\201\341\"\274\201\341\"\274\201\341\"\274\201\341\"\274\201\341\"\274\201\341\"\274\201\341\"\274\201\341\"\274\201\341\"\274\201\341\"\274\201\341\"\274\201\341\"\274\201\341\"\274\201\341\"\274\201\341\"\274\201\341\"\274\201\341\"\274\201\341\"\274\201\341\"\274\201\341\"\274\201\341\"\2743\010,\2743\010,\2743\010,\2743\010,\2743\010,\2743\010,\2743\010,\2743\010,\2743\010,\2743\010,\2743\010,\2743\010,\2743\010,\2743\010,\2743\010,\2743\010,\2743\010,\2743\010,\2743\010,\2743\010,\2743\010,\274?DR\274?DR\274?DR\274?DR\274?DR\274?DR\274?DR\274?DR\274?DR\274?DR\274?DR\274?DR\274?DR\274?DR\274?DR\274?DR\274?DR\274?DR\274?DR\274?DR\274?DR\274?DR\274kc\253<kc\253<kc\253<kc\253<kc\253<kc\253<kc\253<kc\253<kc\253<kc\253<kc\253<kc\253<kc\253<kc\253<kc\253<kc\253<kc\253<kc\253<kc\253<kc\253<\370\346\014\275\370\346\014\275\370\346\014\275\370\346\014\275\370\346\014\275\370\346\014\275\370\346\014\275\370\346\014\275\370\346\014\275\370\346\014\275\370\346\014\275\370\346\014\275\370\346\014\275\370\346\014\275\370\346\014\275\370\346\014\275\370\346\014\275\370\346\014\275\370\346\014\275\370\346\014\275\370\346\014\275\370\346\014\275\\m\020=\\m\020=\\m\020=\\m\020=\\m\020=\\m\020=\\m\020=\\m\020=\\m\020=\\m\020=\\m\020=\\m\020=\\m\020=\\m\020=\\m\020=\\m\020=\\m\020=\\m\020=\\m\020=\\m\020=\\m\020=\\m\020= \263A< \263A< \263A< \263A< \263A< \263A< \263A< \263A< \263A< \263A< \263A< \263A< \263A< \263A< \263A< \263A< \263A< \263A< \263A< \263A<7\247\223\2737\247\223\2737\247\223\2737\247\223\2737\247\223\2737\247\223\2737\247\223\2737\247\223\2737\247\223\2737\247\223\2737\247\223\2737\247\223\2737\247\223\2737\247\223\2737\247\223\2737\247\223\2737\247\223\2737\247\223\2737\247\223\2737\247\223\2737\247\223\273fm\303<fm\303<fm\303<fm\303<fm\303<fm\303<fm\303<fm\303<fm\303<fm\303<fm\303<fm\303<fm\303<fm\303<fm\303<fm\303<fm\303<fm\303<fm\303<fm\303<.s\213\274.s\213\274.s\213\274.s\213\274.s\213\274.s\213\274.s\213\274.s\213\274.s\213\274.s\213\274.s\213\274.s\213\274.s\213\274.s\213\274.s\213\274.s\213\274.s\213\274.s\213\274.s\213\274.s\213\274\277^\021=\277^\021=\277^\021=\277^\021=\277^\021=\277^\021=\277^\021=\277^\021=\277^\021=\277^\021=\277^\021=\277^\021=\277^\021=\277^\021=\277^\021=\277^\021=\277^\021=\277^\021=\277^\021=\277^\021=\277^\021=\277^\021=4Ef\2754Ef\2754Ef\2754Ef\2754Ef\2754Ef\2754Ef\2754Ef\2754Ef\2754Ef\2754Ef\2754Ef\2754Ef\2754Ef\2754Ef\2754Ef\2754Ef\2754Ef\2754Ef\275\303Ao<\303Ao<\303Ao<\303Ao<\303Ao<\303Ao<\303Ao<\303Ao<\303Ao<\303Ao<\303Ao<\303Ao<\303Ao<\303Ao<\303Ao<\303Ao<\303Ao<\303Ao<\303Ao<\303Ao<!\010\337<!\010\337<!\010\337<!\010\337<!\010\337<!\010\337<!\010\337<!\010\337<!\010\337<!\010\337<!\010\337<!\010\337<!\010\337<!\010\337<!\010\337<!\010\337<!\010\337<!\010\337<!\010\337<!\010\337<!\010\337<!\010\337<2U.<2U.<2U.<2U.<2U.<2U.<2U.<2U.<2U.<2U.<2U.<2U.<2U.<2U.<2U.<2U.<2U.<2U.<2U.<2U.<2U.<\'\263\023\275\'\263\023\275\'\263\023\275\'\263\023\275\'\263\023\275\'\263\023\275\'\263\023\275\'\263\023\275\'\263\023\275\'\263\023\275\'\263\023\275\'\263\023\275\'\263\023\275\'\263\023\275\'\263\023\275\'\263\023\275\'\263\023\275\'\263\023\275\'\263\023\275\'\263\023\275\'\263\023\275\220T\004<\220T\004<\220T\004<\220T\004<\220T\004<\220T\004<\220T\004<\220T\004<\220T\004<\220T\004<\220T\004<\220T\004<\220T\004<\220T\004<\220T\004<\220T\004<\220T\004<\220T\004<\220T\004<\220T\004<\220T\004<\220T\004<\277\211\205<\277\211\205<\277\211\205<\277\211\205<\277\211\205<\277\211\205<\277\211\205<\277\211\205<\277\211\205<\277\211\205<\277\211\205<\277\211\205<\277\211\205<\277\211\205<\277\211\205<\277\211\205<\277\211\205<\277\211\205<\277\211\205<\277\211\205<\277\211\205<\340\224!\274\340\224!\274\340\224!\274\340\224!\274\340\224!\274\340\224!\274\340\224!\274\340\224!\274\340\224!\274\340\224!\274\340\224!\274\340\224!\274\340\224!\274\340\224!\274\340\224!\274\340\224!\274\340\224!\274\340\224!\274\340\224!\274\340\224!\274\340\224!\274W\361\337<W\361\337<W\361\337<W\361\337<W\361\337<W\361\337<W\361\337<W\361\337<W\361\337<W\361\337<W\361\337<W\361\337<W\361\337<W\361\337<W\361\337<W\361\337<W\361\337<W\361\337<W\361\337<W\361\337<W\361\337<W\361\337<W\361\337<a\256\013\274a\256\013\274a\256\013\274a\256\013\274a\256\013\274a\256\013\274a\256\013\274a\256\013\274a\256\013\274a\256\013\274a\256\013\274a\256\013\274a\256\013\274a\256\013\274a\256\013\274a\256\013\274a\256\013\274a\256\013\274a\256\013\274\177\257\201\274\177\257\201\274\177\257\201\274\177\257\201\274\177\257\201\274\177\257\201\274\177\257\201\274\177\257\201\274\177\257\201\274\177\257\201\274\177\257\201\274\177\257\201\274\177\257\201\274\177\257\201\274\177\257\201\274\177\257\201\274\177\257\201\274\177\257\201\274\177\257\201\274\177\257\201\274\177\257\201\274\332V\232<\332V\232<\332V\232<\332V\232<\332V\232<\332V\232<\332V\232<\332V\232<\332V\232<\332V\232<\332V\232<\332V\232<\332V\232<\332V\232<\332V\232<\332V\232<\332V\232<\332V\232<\332V\232<\332V\232<\332V\232<\034\335\224;\034\335\224;\034\335\224;\034\335\224;\034\335\224;\034\335\224;\034\335\224;\034\335\224;\034\335\224;\034\335\224;\034\335\224;\034\335\224;\034\335\224;\034\335\224;\034\335\224;\034\335\224;\034\335\224;\034\335\224;\034\335\224;\007\306\244;\007\306\244;\007\306\244;\007\306\244;\007\306\244;\007\306\244;\007\306\244;\007\306\244;\007\306\244;\007\306\244;\007\306\244;\007\306\244;\007\306\244;\007\306\244;\007\306\244;\007\306\244;\007\306\244;\007\306\244;\007\306\244;\007\306\244;\007\306\244;\007\306\244;\352^]\274\352^]\274\352^]\274\352^]\274\352^]\274\352^]\274\352^]\274\352^]\274\352^]\274\352^]\274\352^]\274\352^]\274\352^]\274\352^]\274\352^]\274\352^]\274\352^]\274\352^]\274\352^]\274\352^]\274\352^]\274\315\025<<\315\025<<\315\025<<\315\025<<\315\025<<\315\025<<\315\025<<\315\025<<\315\025<<\315\025<<\315\025<<\315\025<<\315\025<<\315\025<<\315\025<<\315\025<<\315\025<<\315\025<<\315\025<<\315\025<<\256\273\320=\256\273\320=\256\273\320=\256\273\320=\256\273\320=\256\273\320=\256\273\320="
      }
    }
  }
}
node {
  name: "Const_4"
  op: "Const"
  attr {
    key: "_output_shapes"
    value {
      list {
        shape {
          dim {
            size: 1598
          }
        }
      }
    }
  }
  attr {
    key: "dtype"
    value {
      type: DT_FLOAT
    }
  }
  attr {
    key: "value"
    value {
      tensor {
        dtype: DT_FLOAT
        tensor_shape {
          dim {
            size: 1598
          }
        }
        tensor_content: "\241<s?\241<s?\241<s?\241<s?\241<s?\241<s?\241<s?\241<s?\241<s?\241<s?\241<s?\241<s?\241<s?\241<s?\241<s?\241<s?\241<s?\241<s?\207ar?\207ar?\207ar?\207ar?\207ar?\207ar?\207ar?\207ar?\207ar?\207ar?\207ar?\207ar?\207ar?\207ar?\207ar?\207ar?\207ar?\207ar?\207ar?\207ar?\207ar?\267\244r?\267\244r?\267\244r?\267\244r?\267\244r?\267\244r?\267\244r?\267\244r?\267\244r?\267\244r?\267\244r?\267\244r?\267\244r?\267\244r?\267\244r?\267\244r?\267\244r?\267\244r?\267\244r?\267\244r?\267\244r?\267\244r?\033\nr?\033\nr?\033\nr?\033\nr?\033\nr?\033\nr?\033\nr?\033\nr?\033\nr?\033\nr?\033\nr?\033\nr?\033\nr?\033\nr?\033\nr?\033\nr?\033\nr?\033\nr?\033\nr?\033\nr?4\332k?4\332k?4\332k?4\332k?4\332k?4\332k?4\332k?4\332k?4\332k?4\332k?4\332k?4\332k?4\332k?4\332k?4\332k?4\332k?4\332k?4\332k?4\332k?4\332k?4\332k?4\332k?\223\013d?\223\013d?\223\013d?\223\013d?\223\013d?\223\013d?\223\013d?\223\013d?\223\013d?\223\013d?\223\013d?\223\013d?\223\013d?\223\013d?\223\013d?\223\013d?\223\013d?\223\013d?\223\013d?\223\013d?\223\013d?\223\013d?\014@^?\014@^?\014@^?\014@^?\014@^?\014@^?\014@^?\014@^?\014@^?\014@^?\014@^?\014@^?\014@^?\014@^?\014@^?\014@^?\014@^?\014@^?\014@^?\014@^??oJ??oJ??oJ??oJ??oJ??oJ??oJ??oJ??oJ??oJ??oJ??oJ??oJ??oJ??oJ??oJ??oJ??oJ??oJ??oJ??oJ??oJ?\271\355A?\271\355A?\271\355A?\271\355A?\271\355A?\271\355A?\271\355A?\271\355A?\271\355A?\271\355A?\271\355A?\271\355A?\271\355A?\271\355A?\271\355A?\271\355A?\271\355A?\271\355A?\271\355A?\271\355A?\271\355A?\271\355A?hK7?hK7?hK7?hK7?hK7?hK7?hK7?hK7?hK7?hK7?hK7?hK7?hK7?hK7?hK7?hK7?hK7?hK7?hK7?hK7?\235\227!?\235\227!?\235\227!?\235\227!?\235\227!?\235\227!?\235\227!?\235\227!?\235\227!?\235\227!?\235\227!?\235\227!?\235\227!?\235\227!?\235\227!?\235\227!?\235\227!?\235\227!?\235\227!?\235\227!?\235\227!?\303w\031?\303w\031?\303w\031?\303w\031?\303w\031?\303w\031?\303w\031?\303w\031?\303w\031?\303w\031?\303w\031?\303w\031?\303w\031?\303w\031?\303w\031?\303w\031?\303w\031?\303w\031?\303w\031?\303w\031?fo\031?fo\031?fo\031?fo\031?fo\031?fo\031?fo\031?fo\031?fo\031?fo\031?fo\031?fo\031?fo\031?fo\031?fo\031?fo\031?fo\031?fo\031?fo\031?\374\007\030?\374\007\030?\374\007\030?\374\007\030?\374\007\030?\374\007\030?\374\007\030?\374\007\030?\374\007\030?\374\007\030?\374\007\030?\374\007\030?\374\007\030?\374\007\030?\374\007\030?\374\007\030?\374\007\030?\374\007\030?\374\007\030?\374\007\030?\374\007\030?\374\007\030?\374\007\030?p\307\036?p\307\036?p\307\036?p\307\036?p\307\036?p\307\036?p\307\036?p\307\036?p\307\036?p\307\036?p\307\036?p\307\036?p\307\036?p\307\036?p\307\036?p\307\036?p\307\036?p\307\036?p\307\036?p\307\036?p\307\036?U\250\031?U\250\031?U\250\031?U\250\031?U\250\031?U\250\031?U\250\031?U\250\031?U\250\031?U\250\031?U\250\031?U\250\031?U\250\031?U\250\031?U\250\031?U\250\031?U\250\031?U\250\031?U\250\031?U\250\031?\006\236$?\006\236$?\006\236$?\006\236$?\006\236$?\006\236$?\006\236$?\006\236$?\006\236$?\006\236$?\006\236$?\006\236$?\006\236$?\006\236$?\006\236$?\006\236$?\006\236$?\006\236$?\006\236$?\006\236$?\006\236$?\006\236$?\360\177&?\360\177&?\360\177&?\360\177&?\360\177&?\360\177&?\360\177&?\360\177&?\360\177&?\360\177&?\360\177&?\360\177&?\360\177&?\360\177&?\360\177&?\360\177&?\360\177&?\360\177&?\360\177&?\360\177&?\360\177&?\312\323%?\312\323%?\312\323%?\312\323%?\312\323%?\312\323%?\312\323%?\312\323%?\312\323%?\312\323%?\312\323%?\312\323%?\312\323%?\312\323%?\312\323%?\312\323%?\312\323%?\312\323%?\312\323%?\312\323%?\312\323%?\312\323%?\246U+?\246U+?\246U+?\246U+?\246U+?\246U+?\246U+?\246U+?\246U+?\246U+?\246U+?\246U+?\246U+?\246U+?\246U+?\246U+?\246U+?\246U+?\246U+?\246U+?\246U+?o\215*?o\215*?o\215*?o\215*?o\215*?o\215*?o\215*?o\215*?o\215*?o\215*?o\215*?o\215*?o\215*?o\215*?o\215*?o\215*?o\215*?o\215*?o\215*?o\215*?o\215*?\t\005(?\t\005(?\t\005(?\t\005(?\t\005(?\t\005(?\t\005(?\t\005(?\t\005(?\t\005(?\t\005(?\t\005(?\t\005(?\t\005(?\t\005(?\t\005(?\t\005(?\t\005(?\t\005(?\t\005(?\t\005(?L\010@?L\010@?L\010@?L\010@?L\010@?L\010@?L\010@?L\010@?L\010@?L\010@?L\010@?L\010@?L\010@?L\010@?L\010@?L\010@?L\010@?L\010@?L\010@?L\010@?L\010@?\035\2369?\035\2369?\035\2369?\035\2369?\035\2369?\035\2369?\035\2369?\035\2369?\035\2369?\035\2369?\035\2369?\035\2369?\035\2369?\035\2369?\035\2369?\035\2369?\035\2369?\035\2369?\035\2369?\035\2369?{\352=?{\352=?{\352=?{\352=?{\352=?{\352=?{\352=?{\352=?{\352=?{\352=?{\352=?{\352=?{\352=?{\352=?{\352=?{\352=?{\352=?{\352=?{\352=?v\207E?v\207E?v\207E?v\207E?v\207E?v\207E?v\207E?v\207E?v\207E?v\207E?v\207E?v\207E?v\207E?v\207E?v\207E?v\207E?v\207E?v\207E?v\207E?v\207E?v\207E?v\207E?v\207E?\205jD?\205jD?\205jD?\205jD?\205jD?\205jD?\205jD?\205jD?\205jD?\205jD?\205jD?\205jD?\205jD?\205jD?\205jD?\205jD?\205jD?\205jD?\205jD?\205jD?7\217D?7\217D?7\217D?7\217D?7\217D?7\217D?7\217D?7\217D?7\217D?7\217D?7\217D?7\217D?7\217D?7\217D?7\217D?7\217D?7\217D?7\217D?7\217D?7\217D?7\217D?c\305G?c\305G?c\305G?c\305G?c\305G?c\305G?c\305G?c\305G?c\305G?c\305G?c\305G?c\305G?c\305G?c\305G?c\305G?c\305G?c\305G?c\305G?c\305G?c\305G?c\305G?c\305G?t\206J?t\206J?t\206J?t\206J?t\206J?t\206J?t\206J?t\206J?t\206J?t\206J?t\206J?t\206J?t\206J?t\206J?t\206J?t\206J?t\206J?t\206J?t\206J?t\206J?\023!S?\023!S?\023!S?\023!S?\023!S?\023!S?\023!S?\023!S?\023!S?\023!S?\023!S?\023!S?\023!S?\023!S?\023!S?\023!S?\023!S?\023!S?\023!S?\023!S?\023!S?\023!S?\023!S?\0274M?\0274M?\0274M?\0274M?\0274M?\0274M?\0274M?\0274M?\0274M?\0274M?\0274M?\0274M?\0274M?\0274M?\0274M?\0274M?\0274M?\0274M?\0274M?\0274M?\0274M?\371KO?\371KO?\371KO?\371KO?\371KO?\371KO?\371KO?\371KO?\371KO?\371KO?\371KO?\371KO?\371KO?\371KO?\371KO?\371KO?\371KO?\371KO?\371KO?\371KO?\371KO?\275vM?\275vM?\275vM?\275vM?\275vM?\275vM?\275vM?\275vM?\275vM?\275vM?\275vM?\275vM?\275vM?\275vM?\275vM?\275vM?\275vM?\275vM?\275vM?\275vM?\275vM?#\305W?#\305W?#\305W?#\305W?#\305W?#\305W?#\305W?#\305W?#\305W?#\305W?#\305W?#\305W?#\305W?#\305W?#\305W?#\305W?#\305W?#\305W?#\305W?#\305W?#\305W?\253\272L?\253\272L?\253\272L?\253\272L?\253\272L?\253\272L?\253\272L?\253\272L?\253\272L?\253\272L?\253\272L?\253\272L?\253\272L?\253\272L?\253\272L?\253\272L?\253\272L?\253\272L?\253\272L?\253\272L?\253\272L?\032[_?\032[_?\032[_?\032[_?\032[_?\032[_?\032[_?\032[_?\032[_?\032[_?\032[_?\032[_?\032[_?\032[_?\032[_?\032[_?\032[_?\032[_?\032[_?\237\301S?\237\301S?\237\301S?\237\301S?\237\301S?\237\301S?\237\301S?\237\301S?\237\301S?\237\301S?\237\301S?\237\301S?\237\301S?\237\301S?\237\301S?\237\301S?\237\301S?\237\301S?\237\301S?\237\301S?\237\301S?\237\301S?\237\301S?\2009Y?\2009Y?\2009Y?\2009Y?\2009Y?\2009Y?\2009Y?\2009Y?\2009Y?\2009Y?\2009Y?\2009Y?\2009Y?\2009Y?\2009Y?\2009Y?\2009Y?\2009Y?\2009Y?\253\256R?\253\256R?\253\256R?\253\256R?\253\256R?\253\256R?\253\256R?\253\256R?\253\256R?\253\256R?\253\256R?\253\256R?\253\256R?\253\256R?\253\256R?\253\256R?\253\256R?\253\256R?\253\256R?\253\256R?\253\256R?\253\256R?X\334[?X\334[?X\334[?X\334[?X\334[?X\334[?X\334[?X\334[?X\334[?X\334[?X\334[?X\334[?X\334[?X\334[?X\334[?X\334[?X\334[?X\334[?X\334[?X\334[?X\334[?X\334[?\252\353b?\252\353b?\252\353b?\252\353b?\252\353b?\252\353b?\252\353b?\252\353b?\252\353b?\252\353b?\252\353b?\252\353b?\252\353b?\252\353b?\252\353b?\252\353b?\252\353b?\252\353b?\252\353b?\252\353b?Y\207[?Y\207[?Y\207[?Y\207[?Y\207[?Y\207[?Y\207[?Y\207[?Y\207[?Y\207[?Y\207[?Y\207[?Y\207[?Y\207[?Y\207[?Y\207[?Y\207[?Y\207[?Y\207[?Y\207[?Y\207[?Y\207[?Y\207[?\322\321[?\322\321[?\322\321[?\322\321[?\322\321[?\322\321[?\322\321[?\322\321[?\322\321[?\322\321[?\322\321[?\322\321[?\322\321[?\322\321[?\322\321[?\322\321[?\322\321[?\322\321[?\322\321[?\322\321[?\373\260d?\373\260d?\373\260d?\373\260d?\373\260d?\373\260d?\373\260d?\373\260d?\373\260d?\373\260d?\373\260d?\373\260d?\373\260d?\373\260d?\373\260d?\373\260d?\373\260d?\373\260d?\373\260d?\373\260d?\373\260d?\373\260d?\265\033o?\265\033o?\265\033o?\265\033o?\265\033o?\265\033o?\265\033o?\265\033o?\265\033o?\265\033o?\265\033o?\265\033o?\265\033o?\265\033o?\265\033o?\265\033o?\265\033o?\265\033o?\265\033o?\265\033o?\265\033o?\005\256l?\005\256l?\005\256l?\005\256l?\005\256l?\005\256l?\005\256l?\005\256l?\005\256l?\005\256l?\005\256l?\005\256l?\005\256l?\005\256l?\005\256l?\005\256l?\005\256l?\005\256l?\005\256l?\005\256l?U\275k?U\275k?U\275k?U\275k?U\275k?U\275k?U\275k?U\275k?U\275k?U\275k?U\275k?U\275k?U\275k?U\275k?U\275k?U\275k?U\275k?U\275k?U\275k?U\275k?U\275k?\250xi?\250xi?\250xi?\250xi?\250xi?\250xi?\250xi?\250xi?\250xi?\250xi?\250xi?\250xi?\250xi?\250xi?\250xi?\250xi?\250xi?\250xi?\250xi?\250xi?qfg?qfg?qfg?qfg?qfg?qfg?qfg?qfg?qfg?qfg?qfg?qfg?qfg?qfg?qfg?qfg?qfg?qfg?qfg?qfg?qfg?\"\010e?\"\010e?\"\010e?\"\010e?\"\010e?\"\010e?\"\010e?\"\010e?\"\010e?\"\010e?\"\010e?\"\010e?\"\010e?\"\010e?\"\010e?\"\010e?\"\010e?\"\010e?\"\010e?\"\010e?\"\010e?\217\376f?\217\376f?\217\376f?\217\376f?\217\376f?\217\376f?\217\376f?\217\376f?\217\376f?\217\376f?\217\376f?\217\376f?\217\376f?\217\376f?\217\376f?\217\376f?\217\376f?\217\376f?\217\376f?\217\376f?\217\376f?\217\376f?2\246l?2\246l?2\246l?2\246l?2\246l?2\246l?2\246l?2\246l?2\246l?2\246l?2\246l?2\246l?2\246l?2\246l?2\246l?2\246l?2\246l?2\246l?2\246l?2\246l?\213\033U?\213\033U?\213\033U?\213\033U?\213\033U?\213\033U?\213\033U?\213\033U?\213\033U?\213\033U?\213\033U?\213\033U?\213\033U?\213\033U?\213\033U?\213\033U?\213\033U?\213\033U?\213\033U?\213\033U?\213\033U?\213\033U?\035\261b?\035\261b?\035\261b?\035\261b?\035\261b?\035\261b?\035\261b?\035\261b?\035\261b?\035\261b?\035\261b?\035\261b?\035\261b?\035\261b?\035\261b?\035\261b?\035\261b?\035\261b?\035\261b?\035\261b?\035\261b?\035\261b?\317*g?\317*g?\317*g?\317*g?\317*g?\317*g?\317*g?\317*g?\317*g?\317*g?\317*g?\317*g?\317*g?\317*g?\317*g?\317*g?\317*g?\317*g?\317*g?\317*g?\202\260e?\202\260e?\202\260e?\202\260e?\202\260e?\202\260e?\202\260e?\202\260e?\202\260e?\202\260e?\202\260e?\202\260e?\202\260e?\202\260e?\202\260e?\202\260e?\202\260e?\202\260e?\202\260e?\202\260e?\202\260e?\3359r?\3359r?\3359r?\3359r?\3359r?\3359r?\3359r?\3359r?\3359r?\3359r?\3359r?\3359r?\3359r?\3359r?\3359r?\3359r?\3359r?\3359r?\3359r?\3359r?\247\253e?\247\253e?\247\253e?\247\253e?\247\253e?\247\253e?\247\253e?\247\253e?\247\253e?\247\253e?\247\253e?\247\253e?\247\253e?\247\253e?\247\253e?\247\253e?\247\253e?\247\253e?\247\253e?\247\253e?\325^r?\325^r?\325^r?\325^r?\325^r?\325^r?\325^r?\325^r?\325^r?\325^r?\325^r?\325^r?\325^r?\325^r?\325^r?\325^r?\325^r?\325^r?\325^r?\325^r?\325^r?\325^r?\200\034_?\200\034_?\200\034_?\200\034_?\200\034_?\200\034_?\200\034_?\200\034_?\200\034_?\200\034_?\200\034_?\200\034_?\200\034_?\200\034_?\200\034_?\200\034_?\200\034_?\200\034_?\200\034_?@\365h?@\365h?@\365h?@\365h?@\365h?@\365h?@\365h?@\365h?@\365h?@\365h?@\365h?@\365h?@\365h?@\365h?@\365h?@\365h?@\365h?@\365h?@\365h?@\365h?\244\272s?\244\272s?\244\272s?\244\272s?\244\272s?\244\272s?\244\272s?\244\272s?\244\272s?\244\272s?\244\272s?\244\272s?\244\272s?\244\272s?\244\272s?\244\272s?\244\272s?\244\272s?\244\272s?\244\272s?\244\272s?\244\272s?\240\220|?\240\220|?\240\220|?\240\220|?\240\220|?\240\220|?\240\220|?\240\220|?\240\220|?\240\220|?\240\220|?\240\220|?\240\220|?\240\220|?\240\220|?\240\220|?\240\220|?\240\220|?\240\220|?\240\220|?\240\220|?b\373c?b\373c?b\373c?b\373c?b\373c?b\373c?b\373c?b\373c?b\373c?b\373c?b\373c?b\373c?b\373c?b\373c?b\373c?b\373c?b\373c?b\373c?b\373c?b\373c?b\373c?\307\231h?\307\231h?\307\231h?\307\231h?\307\231h?\307\231h?\307\231h?\307\231h?\307\231h?\307\231h?\307\231h?\307\231h?\307\231h?\307\231h?\307\231h?\307\231h?\307\231h?\307\231h?\307\231h?\307\231h?\307\231h?\307\231h?e\232q?e\232q?e\232q?e\232q?e\232q?e\232q?e\232q?e\232q?e\232q?e\232q?e\232q?e\232q?e\232q?e\232q?e\232q?e\232q?e\232q?e\232q?e\232q?e\232q?e\232q?\327\371l?\327\371l?\327\371l?\327\371l?\327\371l?\327\371l?\327\371l?\327\371l?\327\371l?\327\371l?\327\371l?\327\371l?\327\371l?\327\371l?\327\371l?\327\371l?\327\371l?\327\371l?\327\371l?\327\371l?\327\371l?\365\303y?\365\303y?\365\303y?\365\303y?\365\303y?\365\303y?\365\303y?\365\303y?\365\303y?\365\303y?\365\303y?\365\303y?\365\303y?\365\303y?\365\303y?\365\303y?\365\303y?\365\303y?\365\303y?\365\303y?\365\303y?\365\303y?\365\303y?inq?inq?inq?inq?inq?inq?inq?inq?inq?inq?inq?inq?inq?inq?inq?inq?inq?inq?inq?n\321i?n\321i?n\321i?n\321i?n\321i?n\321i?n\321i?n\321i?n\321i?n\321i?n\321i?n\321i?n\321i?n\321i?n\321i?n\321i?n\321i?n\321i?n\321i?n\321i?n\321i?\316\310q?\316\310q?\316\310q?\316\310q?\316\310q?\316\310q?\316\310q?\316\310q?\316\310q?\316\310q?\316\310q?\316\310q?\316\310q?\316\310q?\316\310q?\316\310q?\316\310q?\316\310q?\316\310q?\316\310q?\316\310q?\3271w?\3271w?\3271w?\3271w?\3271w?\3271w?\3271w?\3271w?\3271w?\3271w?\3271w?\3271w?\3271w?\3271w?\3271w?\3271w?\3271w?\3271w?\3271w?\341\217y?\341\217y?\341\217y?\341\217y?\341\217y?\341\217y?\341\217y?\341\217y?\341\217y?\341\217y?\341\217y?\341\217y?\341\217y?\341\217y?\341\217y?\341\217y?\341\217y?\341\217y?\341\217y?\341\217y?\341\217y?\341\217y?J\037t?J\037t?J\037t?J\037t?J\037t?J\037t?J\037t?J\037t?J\037t?J\037t?J\037t?J\037t?J\037t?J\037t?J\037t?J\037t?J\037t?J\037t?J\037t?J\037t?J\037t?\352&y?\352&y?\352&y?\352&y?\352&y?\352&y?\352&y?\352&y?\352&y?\352&y?\352&y?\352&y?\352&y?\352&y?\352&y?\352&y?\352&y?\352&y?\352&y?\352&y?\000\000\200?\000\000\200?\000\000\200?\000\000\200?\000\000\200?\000\000\200?\000\000\200?"
      }
    }
  }
}
node {
  name: "Const_5"
  op: "Const"
  attr {
    key: "_output_shapes"
    value {
      list {
        shape {
          dim {
            size: 1598
          }
        }
      }
    }
  }
  attr {
    key: "dtype"
    value {
      type: DT_FLOAT
    }
  }
  attr {
    key: "value"
    value {
      tensor {
        dtype: DT_FLOAT
        tensor_shape {
          dim {
            size: 1598
          }
        }
